// Automatically created from a TensorFlow Lite flatbuffer using the command:
// xxd -i dog_detection_model.tflite > dog_detection_model_data.cc
// See the README for a full description of the creation process.

#include "dog_detection_model_data.h"

// Keep model aligned to 8 bytes to guarantee aligned 64-bit accesses.
alignas(8) const unsigned char g_dog_detection_model_data[] = {
  0x1c, 0x00, 0x00, 0x00, 0x54, 0x46, 0x4c, 0x33, 0x14, 0x00, 0x20, 0x00,
  0x1c, 0x00, 0x18, 0x00, 0x14, 0x00, 0x10, 0x00, 0x0c, 0x00, 0x00, 0x00,
  0x08, 0x00, 0x04, 0x00, 0x14, 0x00, 0x00, 0x00, 0x1c, 0x00, 0x00, 0x00,
  0x88, 0x00, 0x00, 0x00, 0xe0, 0x00, 0x00, 0x00, 0xa8, 0x1d, 0x00, 0x00,
  0xb8, 0x1d, 0x00, 0x00, 0x18, 0x2f, 0x00, 0x00, 0x03, 0x00, 0x00, 0x00,
  0x01, 0x00, 0x00, 0x00, 0x04, 0x00, 0x00, 0x00, 0x8e, 0xe1, 0xff, 0xff,
  0x0c, 0x00, 0x00, 0x00, 0x1c, 0x00, 0x00, 0x00, 0x38, 0x00, 0x00, 0x00,
  0x0f, 0x00, 0x00, 0x00, 0x73, 0x65, 0x72, 0x76, 0x69, 0x6e, 0x67, 0x5f,
  0x64, 0x65, 0x66, 0x61, 0x75, 0x6c, 0x74, 0x00, 0x01, 0x00, 0x00, 0x00,
  0x04, 0x00, 0x00, 0x00, 0x94, 0xff, 0xff, 0xff, 0x11, 0x00, 0x00, 0x00,
  0x04, 0x00, 0x00, 0x00, 0x07, 0x00, 0x00, 0x00, 0x64, 0x65, 0x6e, 0x73,
  0x65, 0x5f, 0x32, 0x00, 0x01, 0x00, 0x00, 0x00, 0x04, 0x00, 0x00, 0x00,
  0x2e, 0xe2, 0xff, 0xff, 0x04, 0x00, 0x00, 0x00, 0x0c, 0x00, 0x00, 0x00,
  0x63, 0x6f, 0x6e, 0x76, 0x32, 0x64, 0x5f, 0x69, 0x6e, 0x70, 0x75, 0x74,
  0x00, 0x00, 0x00, 0x00, 0x02, 0x00, 0x00, 0x00, 0x34, 0x00, 0x00, 0x00,
  0x04, 0x00, 0x00, 0x00, 0xdc, 0xff, 0xff, 0xff, 0x14, 0x00, 0x00, 0x00,
  0x04, 0x00, 0x00, 0x00, 0x13, 0x00, 0x00, 0x00, 0x43, 0x4f, 0x4e, 0x56,
  0x45, 0x52, 0x53, 0x49, 0x4f, 0x4e, 0x5f, 0x4d, 0x45, 0x54, 0x41, 0x44,
  0x41, 0x54, 0x41, 0x00, 0x08, 0x00, 0x0c, 0x00, 0x08, 0x00, 0x04, 0x00,
  0x08, 0x00, 0x00, 0x00, 0x13, 0x00, 0x00, 0x00, 0x04, 0x00, 0x00, 0x00,
  0x13, 0x00, 0x00, 0x00, 0x6d, 0x69, 0x6e, 0x5f, 0x72, 0x75, 0x6e, 0x74,
  0x69, 0x6d, 0x65, 0x5f, 0x76, 0x65, 0x72, 0x73, 0x69, 0x6f, 0x6e, 0x00,
  0x15, 0x00, 0x00, 0x00, 0xc4, 0x1c, 0x00, 0x00, 0xbc, 0x1c, 0x00, 0x00,
  0xa4, 0x1c, 0x00, 0x00, 0x8c, 0x1c, 0x00, 0x00, 0x7c, 0x14, 0x00, 0x00,
  0x2c, 0x14, 0x00, 0x00, 0x1c, 0x0b, 0x00, 0x00, 0xcc, 0x0a, 0x00, 0x00,
  0xbc, 0x01, 0x00, 0x00, 0x6c, 0x01, 0x00, 0x00, 0xcc, 0x00, 0x00, 0x00,
  0xc4, 0x00, 0x00, 0x00, 0xbc, 0x00, 0x00, 0x00, 0xb4, 0x00, 0x00, 0x00,
  0xac, 0x00, 0x00, 0x00, 0xa4, 0x00, 0x00, 0x00, 0x9c, 0x00, 0x00, 0x00,
  0x94, 0x00, 0x00, 0x00, 0x8c, 0x00, 0x00, 0x00, 0x6c, 0x00, 0x00, 0x00,
  0x04, 0x00, 0x00, 0x00, 0xfe, 0xe2, 0xff, 0xff, 0x04, 0x00, 0x00, 0x00,
  0x58, 0x00, 0x00, 0x00, 0x0c, 0x00, 0x00, 0x00, 0x08, 0x00, 0x0e, 0x00,
  0x08, 0x00, 0x04, 0x00, 0x08, 0x00, 0x00, 0x00, 0x10, 0x00, 0x00, 0x00,
  0x28, 0x00, 0x00, 0x00, 0x00, 0x00, 0x06, 0x00, 0x08, 0x00, 0x04, 0x00,
  0x06, 0x00, 0x00, 0x00, 0x04, 0x00, 0x00, 0x00, 0x01, 0x00, 0x00, 0x00,
  0xeb, 0x03, 0x00, 0x00, 0x00, 0x00, 0x0a, 0x00, 0x10, 0x00, 0x0c, 0x00,
  0x08, 0x00, 0x04, 0x00, 0x0a, 0x00, 0x00, 0x00, 0x01, 0x00, 0x00, 0x00,
  0x02, 0x00, 0x00, 0x00, 0x04, 0x00, 0x00, 0x00, 0x06, 0x00, 0x00, 0x00,
  0x32, 0x2e, 0x31, 0x31, 0x2e, 0x30, 0x00, 0x00, 0x62, 0xe3, 0xff, 0xff,
  0x04, 0x00, 0x00, 0x00, 0x10, 0x00, 0x00, 0x00, 0x31, 0x2e, 0x31, 0x34,
  0x2e, 0x30, 0x00, 0x00, 0x00, 0x00, 0x00, 0x00, 0x00, 0x00, 0x00, 0x00,
  0x7c, 0xd3, 0xff, 0xff, 0x80, 0xd3, 0xff, 0xff, 0x84, 0xd3, 0xff, 0xff,
  0x88, 0xd3, 0xff, 0xff, 0x8c, 0xd3, 0xff, 0xff, 0x90, 0xd3, 0xff, 0xff,
  0x94, 0xd3, 0xff, 0xff, 0x98, 0xd3, 0xff, 0xff, 0x9e, 0xe3, 0xff, 0xff,
  0x04, 0x00, 0x00, 0x00, 0x90, 0x00, 0x00, 0x00, 0x07, 0x56, 0xef, 0xb8,
  0x7c, 0xda, 0x81, 0xe1, 0x33, 0x33, 0x01, 0xda, 0x2a, 0x59, 0x24, 0x81,
  0xce, 0xfe, 0x8c, 0xf4, 0x7f, 0xea, 0x51, 0xcc, 0xbc, 0x65, 0x97, 0xd6,
  0x81, 0xc0, 0x57, 0x30, 0x3b, 0x1e, 0x00, 0xf9, 0xc1, 0x35, 0xec, 0x1d,
  0xfc, 0xdd, 0x81, 0x52, 0x36, 0x81, 0xc6, 0x36, 0xb1, 0xe3, 0xfa, 0x25,
  0x5b, 0xe1, 0x6c, 0x05, 0x70, 0xb4, 0x9f, 0x81, 0x39, 0xe8, 0xb7, 0x30,
  0x08, 0x03, 0x5f, 0xfe, 0x9d, 0x6d, 0x81, 0xe9, 0x81, 0x4e, 0x20, 0xd9,
  0x31, 0xea, 0xe1, 0x51, 0xcb, 0x05, 0x56, 0x42, 0xed, 0x26, 0x30, 0xf8,
  0xb6, 0x81, 0x34, 0x41, 0x32, 0x92, 0x5e, 0x86, 0x81, 0xc9, 0x5a, 0x0f,
  0x43, 0x1e, 0x81, 0xb6, 0x0c, 0xd6, 0x48, 0xd2, 0xc3, 0x81, 0x9b, 0x72,
  0x30, 0x60, 0x2d, 0xf2, 0xdc, 0x8c, 0x81, 0xba, 0x3e, 0x05, 0x36, 0x38,
  0x2b, 0x12, 0x8d, 0xf1, 0xc0, 0x1d, 0x7f, 0xd5, 0x52, 0x1a, 0x1d, 0xcf,
  0x4d, 0xd9, 0xfe, 0x1a, 0x1e, 0xef, 0x81, 0x05, 0x3a, 0xe4, 0xff, 0xff,
  0x04, 0x00, 0x00, 0x00, 0x40, 0x00, 0x00, 0x00, 0x6a, 0xed, 0xff, 0xff,
  0xfe, 0x06, 0x00, 0x00, 0xb0, 0xcb, 0xff, 0xff, 0x6f, 0xee, 0xff, 0xff,
  0x59, 0xe2, 0xff, 0xff, 0xcd, 0x72, 0xff, 0xff, 0x02, 0x90, 0xff, 0xff,
  0x7c, 0x0e, 0x00, 0x00, 0xa4, 0xdd, 0xff, 0xff, 0x7b, 0x0e, 0x00, 0x00,
  0x04, 0xc6, 0xff, 0xff, 0x2a, 0xab, 0xff, 0xff, 0x55, 0xe1, 0xff, 0xff,
  0x6a, 0xb7, 0xff, 0xff, 0x83, 0x25, 0x00, 0x00, 0x4f, 0xa4, 0xff, 0xff,
  0x86, 0xe4, 0xff, 0xff, 0x04, 0x00, 0x00, 0x00, 0x00, 0x09, 0x00, 0x00,
  0xd0, 0xb5, 0x3f, 0x2d, 0x07, 0x54, 0x99, 0xc7, 0x35, 0xf9, 0xbf, 0xee,
  0xfc, 0x3d, 0x14, 0xd2, 0xbe, 0xd4, 0xf0, 0x05, 0xbf, 0xee, 0xc6, 0xef,
  0xf3, 0x2b, 0x8d, 0xb8, 0x04, 0x25, 0x41, 0xdf, 0x01, 0x11, 0x16, 0xfa,
  0xfe, 0x06, 0xe8, 0xe3, 0x12, 0x34, 0xfd, 0x04, 0xc1, 0x00, 0x22, 0xf0,
  0xe6, 0xcd, 0x1d, 0x0b, 0xc8, 0xee, 0xf7, 0x13, 0x0f, 0x01, 0xdc, 0xde,
  0x3a, 0x0b, 0x19, 0xe5, 0x00, 0x01, 0xfc, 0x23, 0xc3, 0xcc, 0x1f, 0x48,
  0xfe, 0x0e, 0xfd, 0xcd, 0xf4, 0xef, 0x22, 0x12, 0xf5, 0x07, 0x0c, 0xd2,
  0x0f, 0x03, 0x15, 0x06, 0xec, 0xfd, 0x2e, 0x24, 0xb3, 0xd3, 0xe2, 0x0a,
  0x4f, 0xf7, 0xf1, 0xce, 0xe7, 0xe1, 0x06, 0x31, 0x28, 0x36, 0xfd, 0xf2,
  0xd0, 0x9a, 0xcf, 0x0c, 0x3c, 0x41, 0xf6, 0xad, 0xdc, 0xad, 0x40, 0x4b,
  0xe3, 0x4c, 0x3c, 0x09, 0xd3, 0x83, 0xc6, 0x2f, 0x3c, 0x20, 0xfd, 0x88,
  0x34, 0xec, 0x20, 0x1c, 0xe8, 0x29, 0x20, 0x3a, 0x84, 0xde, 0x81, 0x1e,
  0x1d, 0xe1, 0x01, 0xf3, 0x2c, 0x07, 0xfe, 0xf9, 0x20, 0xb5, 0x0c, 0xf9,
  0xf8, 0x1a, 0xf1, 0x1d, 0x2f, 0xd4, 0x48, 0x2f, 0x4e, 0x17, 0xf9, 0x13,
  0x41, 0xe4, 0x0b, 0x33, 0x22, 0x1c, 0x15, 0xf3, 0xf9, 0xc0, 0x3d, 0x1b,
  0xe9, 0x04, 0x11, 0x2d, 0x53, 0xea, 0xf0, 0x22, 0x4e, 0xfc, 0x22, 0x08,
  0x3e, 0x2d, 0x17, 0x05, 0x32, 0x16, 0xe3, 0xef, 0x02, 0xf5, 0x18, 0xfb,
  0x12, 0x19, 0xf5, 0x10, 0x2d, 0x21, 0x41, 0x73, 0x3f, 0x0e, 0x02, 0xf9,
  0x36, 0x0d, 0x1f, 0x17, 0x51, 0x1d, 0x30, 0xff, 0x10, 0xfb, 0x30, 0x4a,
  0x11, 0xfb, 0x1a, 0x18, 0x62, 0x02, 0xf3, 0x01, 0x7f, 0x18, 0x43, 0x0e,
  0x41, 0x3d, 0x15, 0x09, 0x15, 0x13, 0xcd, 0xf8, 0x2c, 0x30, 0x06, 0xd7,
  0x20, 0x19, 0xf4, 0x14, 0x25, 0x54, 0x20, 0x31, 0x18, 0xf0, 0xdc, 0x00,
  0x3e, 0x31, 0xfb, 0xcf, 0x3c, 0x0d, 0x15, 0x26, 0x61, 0x22, 0x42, 0x42,
  0xfc, 0xe1, 0xfa, 0x16, 0x37, 0x03, 0x04, 0xe0, 0x6e, 0xfc, 0x39, 0x01,
  0xf9, 0x1e, 0x0e, 0xfc, 0xe9, 0xed, 0xf6, 0xf7, 0xe5, 0x2c, 0xd8, 0x0c,
  0x1f, 0x15, 0x07, 0x0c, 0x2c, 0x37, 0xff, 0x24, 0x16, 0x06, 0xf9, 0xfa,
  0xed, 0x09, 0x22, 0xe3, 0x1d, 0x17, 0x0e, 0x21, 0x41, 0x05, 0xd7, 0x4a,
  0x13, 0xe8, 0xd0, 0x02, 0x04, 0xe8, 0x06, 0xdb, 0x4f, 0x0e, 0x28, 0x04,
  0xe7, 0xd6, 0x0b, 0xe5, 0xb1, 0x14, 0x2a, 0x0c, 0xfc, 0x2f, 0xd9, 0x0a,
  0xea, 0xfa, 0xfe, 0xe0, 0x3b, 0x19, 0xed, 0xd2, 0xd6, 0xfe, 0x1f, 0x27,
  0xfd, 0x11, 0x28, 0xfb, 0xc4, 0xe5, 0xf4, 0x1f, 0x48, 0x00, 0x03, 0xbd,
  0x0f, 0x06, 0xea, 0xdf, 0x3a, 0xff, 0x29, 0xef, 0x89, 0xcf, 0xeb, 0xf9,
  0x81, 0x90, 0x04, 0xf2, 0xd1, 0x03, 0x12, 0xed, 0xff, 0xf2, 0xb6, 0xfd,
  0xff, 0x19, 0x25, 0xd7, 0xbf, 0xd1, 0x2b, 0x25, 0xeb, 0x20, 0x31, 0x28,
  0xf9, 0x51, 0xed, 0x07, 0x3f, 0x07, 0x01, 0xfe, 0x4d, 0xe5, 0x1a, 0xdb,
  0xf6, 0x16, 0xe8, 0xe1, 0x47, 0x38, 0x18, 0x1c, 0xc8, 0xf6, 0xe5, 0xee,
  0x08, 0x1d, 0x12, 0xfb, 0xf9, 0x02, 0xff, 0xf3, 0x10, 0x16, 0xf9, 0x09,
  0xf1, 0xfe, 0xeb, 0x4a, 0x19, 0x7f, 0x13, 0xfa, 0x15, 0xff, 0x07, 0xfc,
  0x09, 0x0b, 0xf1, 0x15, 0x09, 0xf1, 0xf1, 0x36, 0x25, 0x34, 0x2c, 0x17,
  0x05, 0x09, 0xdc, 0xde, 0x21, 0xe7, 0x03, 0xff, 0x20, 0xed, 0x15, 0x07,
  0xfd, 0xf5, 0x30, 0x07, 0xe7, 0x1b, 0x26, 0xfa, 0x25, 0x0f, 0x26, 0x1a,
  0x09, 0x29, 0x1f, 0x0a, 0x14, 0xf5, 0x3f, 0x1f, 0x28, 0x3a, 0x54, 0x12,
  0x3d, 0x0a, 0x28, 0x49, 0x12, 0x16, 0x09, 0x10, 0x4b, 0xf1, 0x3d, 0xdd,
  0x0d, 0x08, 0x50, 0xfe, 0x57, 0xfd, 0x24, 0x4b, 0xc1, 0x03, 0x00, 0x05,
  0xc6, 0xc5, 0x01, 0x08, 0xc5, 0xf5, 0xec, 0xf4, 0xf5, 0xad, 0xf3, 0xe8,
  0x15, 0x21, 0xfc, 0x0e, 0xf0, 0xcb, 0x39, 0x55, 0x11, 0x00, 0x21, 0x0d,
  0x17, 0xfc, 0x08, 0x0c, 0x73, 0x29, 0x14, 0xfe, 0x5d, 0xe2, 0x39, 0x2a,
  0xe1, 0x07, 0x21, 0xf8, 0x47, 0xff, 0x00, 0x28, 0x60, 0x08, 0xfd, 0x14,
  0x3e, 0x33, 0xf0, 0xeb, 0x28, 0xe2, 0xf0, 0xec, 0xe9, 0x12, 0x15, 0x0d,
  0xd8, 0xf2, 0xe4, 0x1a, 0x1e, 0x36, 0x03, 0xf7, 0x4e, 0xe8, 0xfc, 0x0c,
  0xfb, 0xf4, 0x15, 0xed, 0xee, 0xf0, 0x11, 0xff, 0x0e, 0xfa, 0xeb, 0x19,
  0x03, 0xfb, 0xe4, 0x22, 0xfa, 0xc1, 0xee, 0xe6, 0x15, 0x00, 0x20, 0xeb,
  0x3a, 0x05, 0x28, 0xc7, 0x13, 0x15, 0x28, 0xf4, 0x2b, 0x1a, 0x30, 0x19,
  0xb5, 0xf4, 0xee, 0x1a, 0x41, 0x1f, 0x0b, 0xe3, 0x3c, 0x13, 0x06, 0xfe,
  0x12, 0x08, 0x39, 0x07, 0xfb, 0xee, 0xff, 0x06, 0x3d, 0x08, 0xe9, 0x14,
  0x14, 0xf7, 0xda, 0xea, 0xec, 0xe4, 0x0a, 0xf0, 0x07, 0x02, 0x06, 0xfa,
  0x17, 0xd8, 0x3b, 0x05, 0xe7, 0x06, 0x2c, 0x1c, 0x4a, 0x41, 0x03, 0x0d,
  0x13, 0x11, 0xf5, 0x16, 0x47, 0x48, 0x24, 0xf2, 0x0a, 0x07, 0x1e, 0x06,
  0x27, 0x3f, 0x30, 0x1a, 0x0b, 0xfa, 0xff, 0x2e, 0x7f, 0x2b, 0x22, 0x0e,
  0x1a, 0xfc, 0xe1, 0xdb, 0x15, 0x21, 0x1d, 0x19, 0x19, 0x06, 0xf3, 0x1e,
  0x17, 0x01, 0x57, 0x0f, 0x1f, 0x33, 0xda, 0xba, 0x4a, 0xfe, 0xfe, 0x02,
  0xfb, 0x2d, 0x12, 0xf4, 0xfa, 0xf8, 0x4a, 0xfb, 0xf5, 0x08, 0xf3, 0x02,
  0x34, 0x24, 0xdc, 0xf8, 0x01, 0x11, 0x12, 0x18, 0x07, 0x07, 0x23, 0xd7,
  0xf6, 0x07, 0x0c, 0x0f, 0x0f, 0x27, 0x07, 0xdf, 0xeb, 0xe8, 0x20, 0x0e,
  0x43, 0x1f, 0x32, 0xe5, 0x23, 0x08, 0x11, 0xd7, 0x33, 0x1b, 0x52, 0x0f,
  0xd5, 0xf4, 0x1c, 0xfb, 0x20, 0x06, 0x1f, 0xfa, 0x19, 0xe7, 0x2d, 0x13,
  0x1d, 0x34, 0x33, 0x20, 0x0a, 0xed, 0x0e, 0x10, 0x16, 0x05, 0xf1, 0xdd,
  0xf2, 0x05, 0x38, 0x2e, 0xf0, 0x21, 0x04, 0x10, 0xed, 0xea, 0xde, 0x10,
  0x7f, 0x27, 0x1b, 0xe4, 0x36, 0x1e, 0x04, 0xfc, 0x39, 0x32, 0x6e, 0x1b,
  0xff, 0xf2, 0xf8, 0x29, 0x54, 0x18, 0x02, 0x1a, 0x12, 0xf1, 0x14, 0x20,
  0x07, 0xfd, 0x24, 0x29, 0x1c, 0xfb, 0xf4, 0x08, 0x00, 0x0e, 0xf1, 0x11,
  0x0d, 0x08, 0x24, 0x05, 0xeb, 0xf1, 0x10, 0x0f, 0x35, 0x0a, 0xfb, 0xfe,
  0x13, 0x07, 0x2e, 0x3e, 0xe7, 0x13, 0xb1, 0xd4, 0x2f, 0x35, 0xe5, 0xd5,
  0x15, 0x35, 0x3f, 0x04, 0x21, 0x2b, 0x3d, 0x15, 0x12, 0x0e, 0xe6, 0x00,
  0x29, 0x5b, 0xdc, 0xd4, 0x1b, 0x17, 0x42, 0xf7, 0x2a, 0x14, 0x2d, 0xde,
  0x0a, 0xff, 0xea, 0x0c, 0x2d, 0x4c, 0xe4, 0xd4, 0xeb, 0x08, 0x2c, 0x04,
  0x2f, 0xfc, 0x0e, 0xdb, 0xd8, 0xed, 0x19, 0xeb, 0x0e, 0x14, 0x3d, 0x11,
  0xbb, 0xf2, 0x16, 0xfe, 0x2a, 0x0a, 0x00, 0xef, 0x08, 0xdb, 0x14, 0x09,
  0xfa, 0x0e, 0x25, 0x1f, 0xeb, 0xe4, 0x07, 0xeb, 0x23, 0xfc, 0xfd, 0xf0,
  0x0b, 0xe5, 0x36, 0x07, 0xfd, 0x09, 0x0f, 0x1e, 0xcc, 0xed, 0xff, 0xfb,
  0x7f, 0x34, 0xed, 0xc0, 0xf6, 0xf4, 0x48, 0x2c, 0x00, 0x68, 0x6b, 0x2c,
  0xd0, 0xc7, 0xcc, 0x09, 0x76, 0x3b, 0x02, 0xaa, 0x25, 0xf5, 0x38, 0x23,
  0x08, 0x58, 0x58, 0x4b, 0xcf, 0xb0, 0xd8, 0x1e, 0x64, 0x5e, 0x20, 0xd7,
  0x33, 0x0d, 0x43, 0xef, 0x09, 0x28, 0x37, 0x44, 0xe4, 0xc5, 0xb2, 0x1a,
  0x39, 0x33, 0xe5, 0xe0, 0x3e, 0xe8, 0xe8, 0xec, 0xf8, 0xff, 0x20, 0x03,
  0xbb, 0xf9, 0xf8, 0x04, 0x26, 0x27, 0xfa, 0xfc, 0x44, 0xe9, 0xe8, 0x13,
  0xfe, 0xf4, 0x14, 0xe7, 0xf9, 0xfe, 0x2c, 0xe5, 0xfa, 0xfc, 0xdb, 0x07,
  0x0b, 0xff, 0xe7, 0x21, 0xda, 0xbd, 0xdc, 0xd0, 0x1a, 0x15, 0x38, 0xee,
  0x45, 0x0d, 0x19, 0xb5, 0x25, 0x12, 0x03, 0xd6, 0x1f, 0xfc, 0x30, 0x2c,
  0x81, 0xf3, 0xe1, 0x03, 0x2c, 0xf8, 0x03, 0xe7, 0x33, 0xfd, 0xf9, 0x0c,
  0x0a, 0x06, 0x22, 0x15, 0xf0, 0xeb, 0x04, 0xfe, 0x18, 0xf0, 0xdd, 0xff,
  0x0f, 0xf8, 0xea, 0xff, 0xf1, 0xec, 0x01, 0xea, 0x0b, 0x03, 0x1b, 0xe2,
  0x4e, 0x01, 0x18, 0xfe, 0xe5, 0x1b, 0x23, 0x09, 0x2c, 0x71, 0x2c, 0x2c,
  0x06, 0x05, 0xe5, 0x14, 0x4c, 0x4c, 0x13, 0xe7, 0x04, 0xfc, 0x14, 0x13,
  0x25, 0x71, 0x30, 0x17, 0xff, 0xd6, 0xfe, 0x36, 0x6f, 0x3a, 0x30, 0x05,
  0x06, 0xf5, 0x09, 0xfe, 0x11, 0x39, 0x1b, 0x19, 0x09, 0xed, 0xe1, 0x0a,
  0xe3, 0xda, 0x04, 0xf6, 0xe1, 0x03, 0xfe, 0xf4, 0xf3, 0x24, 0xea, 0xfe,
  0xf7, 0x08, 0x01, 0x1c, 0x19, 0x3e, 0x13, 0x04, 0x24, 0x10, 0x14, 0x15,
  0x0f, 0x0f, 0x11, 0xf9, 0x0c, 0x0f, 0xf5, 0x1f, 0x30, 0x1c, 0x14, 0xff,
  0x17, 0x01, 0xc9, 0xcf, 0x22, 0xe6, 0xfb, 0xfa, 0xef, 0xfd, 0x0b, 0x04,
  0xdf, 0xe5, 0x07, 0x00, 0xe5, 0xf8, 0x09, 0xf2, 0xea, 0x0c, 0xfa, 0xe0,
  0xfe, 0x12, 0x1b, 0xf3, 0x25, 0x0d, 0x2b, 0x06, 0x13, 0x16, 0x28, 0x2d,
  0x1a, 0x07, 0x22, 0x2f, 0x17, 0x11, 0xfc, 0x22, 0x67, 0x14, 0x3e, 0xe0,
  0x2a, 0x0e, 0xe2, 0xc7, 0x59, 0x04, 0x26, 0x2a, 0xc1, 0xed, 0x06, 0xfa,
  0xe8, 0xcf, 0xfb, 0x03, 0xe6, 0xfc, 0x0e, 0x0a, 0xe2, 0x00, 0xff, 0xec,
  0xfb, 0x09, 0x09, 0x05, 0x0f, 0xe9, 0x3f, 0x31, 0xf8, 0x09, 0x33, 0x31,
  0x0b, 0x4e, 0x10, 0x15, 0x4e, 0x16, 0xff, 0x11, 0x7f, 0xff, 0x3a, 0xef,
  0x0a, 0x0a, 0x0e, 0xd5, 0x56, 0x4f, 0x15, 0x17, 0xf9, 0x01, 0x06, 0x1b,
  0x92, 0xcf, 0x5f, 0x24, 0xd6, 0x2f, 0xad, 0xf1, 0x51, 0x56, 0xa4, 0xc3,
  0x05, 0x27, 0x43, 0xd4, 0xcd, 0x07, 0x2f, 0x00, 0xb4, 0xeb, 0xdd, 0x41,
  0x14, 0x7a, 0x9e, 0xbc, 0x0f, 0x12, 0x3d, 0xf9, 0xfb, 0x3a, 0x0f, 0xc9,
  0xd5, 0xcf, 0x18, 0x25, 0xf8, 0x59, 0x08, 0xcf, 0xc3, 0xd3, 0x03, 0xff,
  0xf8, 0x02, 0x2d, 0xf6, 0xd6, 0xc6, 0xfd, 0x23, 0xf1, 0x43, 0x04, 0xd7,
  0x00, 0xda, 0x26, 0x01, 0x25, 0x13, 0xed, 0xf9, 0xc0, 0xc3, 0x42, 0x5e,
  0xe9, 0x4d, 0x09, 0xeb, 0x05, 0xbe, 0xf0, 0x08, 0x18, 0x28, 0xf4, 0xbf,
  0xb6, 0xc9, 0x34, 0x2c, 0xc1, 0x41, 0x15, 0x2a, 0xdd, 0xb0, 0xb1, 0x2e,
  0x7b, 0x3b, 0xf3, 0xe1, 0x10, 0xf8, 0x25, 0x04, 0xec, 0x3d, 0x50, 0x04,
  0xd0, 0xe4, 0xf0, 0x01, 0x32, 0x24, 0xec, 0x02, 0xfb, 0x0f, 0x59, 0x43,
  0xcb, 0x59, 0x43, 0x24, 0xcb, 0xec, 0xf6, 0x12, 0x15, 0x39, 0x06, 0xf7,
  0xeb, 0x15, 0x7f, 0x2e, 0xc9, 0x34, 0x19, 0x1f, 0xc8, 0x00, 0x0e, 0x04,
  0x18, 0x10, 0x08, 0x0d, 0x22, 0x03, 0xe7, 0xfe, 0x1e, 0xf7, 0x04, 0xfe,
  0x1b, 0x4c, 0x25, 0xf8, 0xf4, 0x17, 0x53, 0x7f, 0x56, 0x20, 0x02, 0x04,
  0x45, 0x10, 0x01, 0x15, 0x73, 0x3a, 0x27, 0xe9, 0x05, 0xe0, 0x3a, 0x56,
  0xf4, 0x11, 0x0e, 0x14, 0x48, 0x0d, 0xe9, 0xf2, 0x5d, 0x19, 0x68, 0x06,
  0x38, 0x1a, 0x30, 0x0b, 0x0c, 0x09, 0x06, 0xf1, 0x1d, 0x0e, 0x42, 0x1e,
  0x19, 0x16, 0x14, 0xfb, 0x1c, 0x25, 0x4d, 0x55, 0x0d, 0xdd, 0x0e, 0x06,
  0x47, 0x35, 0x30, 0x16, 0x57, 0x08, 0x18, 0xfc, 0x0b, 0xfe, 0x1a, 0x35,
  0xee, 0xf7, 0x0d, 0x28, 0x22, 0x10, 0xfa, 0xf3, 0x43, 0x04, 0x20, 0x15,
  0x5a, 0x08, 0x17, 0xfb, 0x20, 0x0c, 0xf0, 0xf4, 0x3d, 0x5a, 0x40, 0x25,
  0xed, 0x0c, 0x01, 0xf8, 0x3a, 0x35, 0x24, 0xee, 0xfd, 0x01, 0x23, 0x06,
  0x2f, 0x73, 0x31, 0x0b, 0xf8, 0xea, 0xf5, 0x1c, 0x2b, 0x21, 0x30, 0xe8,
  0xf8, 0x08, 0x41, 0x1d, 0x02, 0x2b, 0x0a, 0x03, 0xfa, 0xeb, 0xe1, 0x0f,
  0xef, 0x1a, 0xec, 0xbd, 0x0b, 0xbb, 0xb3, 0x09, 0xdc, 0xf3, 0xd3, 0xf4,
  0x83, 0x9a, 0x05, 0xe2, 0xde, 0xd2, 0xe6, 0x03, 0xea, 0xdf, 0xde, 0xf1,
  0xf0, 0xbf, 0xb9, 0xe8, 0xec, 0xcc, 0xfc, 0xa7, 0x85, 0xba, 0xc1, 0x05,
  0xd3, 0xa4, 0xc2, 0x2d, 0xab, 0xcf, 0xa0, 0xb3, 0xe4, 0xd7, 0x2c, 0x9c,
  0x43, 0x04, 0x26, 0x90, 0x12, 0xdc, 0xaf, 0x14, 0x56, 0x21, 0x05, 0x17,
  0x8e, 0xcc, 0x0a, 0x05, 0x13, 0xff, 0x12, 0xd5, 0x12, 0xc4, 0xe8, 0x15,
  0xec, 0x12, 0xe5, 0xc7, 0xe3, 0xaa, 0x17, 0xe2, 0x08, 0x17, 0x9c, 0x06,
  0xce, 0x81, 0xb9, 0x35, 0xaa, 0xe2, 0xda, 0xa0, 0xd0, 0xd5, 0x04, 0xc3,
  0x02, 0xd4, 0x28, 0xf9, 0x02, 0xf9, 0x06, 0x30, 0x47, 0x42, 0xf3, 0x40,
  0x9b, 0x11, 0x06, 0x00, 0xf6, 0x0d, 0x0b, 0xc2, 0x09, 0x12, 0x1e, 0x01,
  0xe9, 0x43, 0x0f, 0x13, 0xbe, 0xd9, 0xfa, 0xfd, 0xfe, 0x5d, 0xc4, 0xd4,
  0xe7, 0xfe, 0x33, 0x28, 0xbf, 0x5b, 0xf6, 0xf3, 0xa6, 0xe5, 0xf1, 0xee,
  0x23, 0xa9, 0x33, 0xe5, 0x50, 0x2f, 0xe0, 0xca, 0x56, 0x9a, 0xf4, 0x3f,
  0xcd, 0x0b, 0xcb, 0x14, 0x56, 0xd8, 0x27, 0x3c, 0x43, 0x2b, 0xf3, 0xc9,
  0x54, 0xcd, 0xef, 0x08, 0x1f, 0x34, 0x05, 0xfe, 0x1a, 0xdd, 0x33, 0x26,
  0x0d, 0x17, 0xe5, 0xaa, 0x5d, 0xab, 0x1f, 0x25, 0x59, 0xfe, 0xf6, 0xd2,
  0x47, 0x15, 0x69, 0x16, 0x76, 0x47, 0xe6, 0xe7, 0x6a, 0xf5, 0x29, 0x43,
  0x10, 0x40, 0x0a, 0x29, 0x4b, 0x0c, 0x55, 0x6a, 0x47, 0xec, 0xfb, 0xff,
  0x35, 0xf8, 0x24, 0x08, 0x78, 0x54, 0x2b, 0x12, 0x2c, 0x06, 0x35, 0x30,
  0x16, 0x09, 0xf2, 0xfd, 0x55, 0x03, 0xfd, 0x13, 0x76, 0x30, 0x17, 0x22,
  0x43, 0x31, 0x6a, 0x16, 0x11, 0x2d, 0xc3, 0xe1, 0x45, 0xcd, 0x20, 0xfc,
  0x36, 0x34, 0x13, 0x0c, 0x27, 0x68, 0x2a, 0x43, 0x25, 0xe0, 0xba, 0xe3,
  0x39, 0xef, 0xe4, 0xd7, 0x7f, 0x0b, 0xfe, 0x24, 0x28, 0x25, 0x57, 0x19,
  0x00, 0xee, 0xed, 0xe6, 0x21, 0x28, 0xf2, 0xcd, 0x69, 0xf2, 0x11, 0x07,
  0x01, 0xb4, 0xeb, 0x10, 0x2d, 0x08, 0x03, 0xf6, 0x1d, 0xad, 0x11, 0x0f,
  0x06, 0x14, 0xf2, 0x0a, 0x2a, 0xba, 0x39, 0x3e, 0x5f, 0x0c, 0xff, 0x16,
  0x34, 0xb2, 0x0f, 0x32, 0x57, 0x2b, 0x03, 0xf3, 0xf0, 0xca, 0x1e, 0x38,
  0xfd, 0x03, 0xfc, 0x15, 0x4a, 0xc3, 0xfc, 0x0e, 0x60, 0x07, 0x16, 0xfd,
  0x21, 0x2d, 0x1b, 0x15, 0x1d, 0xf8, 0xd2, 0xf0, 0xef, 0x0a, 0xff, 0xdf,
  0x32, 0x1d, 0xf8, 0x13, 0x13, 0x32, 0x32, 0x63, 0x12, 0xed, 0xcc, 0xfd,
  0x44, 0x02, 0xfa, 0xed, 0x7f, 0x23, 0x21, 0x1b, 0xfd, 0x1a, 0x24, 0x46,
  0xf5, 0x0c, 0xbc, 0x0b, 0x50, 0x0c, 0xe3, 0xe0, 0x7f, 0x0f, 0x21, 0x0e,
  0x37, 0x34, 0x25, 0x1a, 0xf8, 0x01, 0xd1, 0xe3, 0x2d, 0x3b, 0x0f, 0xe8,
  0x24, 0x04, 0xf6, 0x1b, 0x1b, 0x4d, 0x20, 0x0f, 0xe8, 0xe3, 0xe1, 0xff,
  0x38, 0x4a, 0xe8, 0xe0, 0x2e, 0x01, 0x09, 0x1a, 0x1f, 0x05, 0x45, 0x15,
  0xd8, 0xe6, 0x00, 0x16, 0x36, 0x39, 0xe2, 0xee, 0x1e, 0xf9, 0x12, 0xf9,
  0x3e, 0x0e, 0x2b, 0xe3, 0x38, 0xf2, 0xe2, 0xd7, 0x20, 0xfe, 0x16, 0xf0,
  0xe6, 0xef, 0xe8, 0x0b, 0x1f, 0xff, 0x11, 0xf5, 0x2d, 0x00, 0xec, 0x0a,
  0x15, 0xfb, 0x13, 0x04, 0xf5, 0x07, 0x02, 0xf0, 0xeb, 0xe8, 0x00, 0xed,
  0xef, 0x03, 0xe8, 0xf9, 0x0e, 0xcf, 0xee, 0xe4, 0xe0, 0x05, 0x02, 0xf4,
  0x7f, 0x1d, 0x25, 0xea, 0x47, 0xff, 0xfb, 0xf2, 0x33, 0xf0, 0x54, 0x19,
  0xc2, 0xf0, 0xf1, 0x1c, 0x38, 0x09, 0x2a, 0x1d, 0x44, 0x0a, 0xf6, 0x0b,
  0x20, 0xf3, 0x25, 0x22, 0x0c, 0x0a, 0x0d, 0xf3, 0x06, 0xf8, 0xef, 0x28,
  0x01, 0xf3, 0xdd, 0xeb, 0xf2, 0xcc, 0xf2, 0xf0, 0x2f, 0xfd, 0x0f, 0xf1,
  0x66, 0x19, 0x09, 0x11, 0x27, 0x08, 0xf6, 0x09, 0x3b, 0x22, 0x42, 0x22,
  0x1b, 0x06, 0xfb, 0x2e, 0x51, 0x32, 0x21, 0x00, 0x20, 0x10, 0x12, 0x07,
  0x1e, 0x02, 0x37, 0x18, 0x07, 0x04, 0x06, 0x20, 0x24, 0x06, 0x0e, 0x0e,
  0x04, 0x0b, 0xed, 0xd4, 0x06, 0xf3, 0xfa, 0xf8, 0x20, 0x0b, 0xfb, 0x00,
  0xdb, 0xf9, 0xd3, 0x0d, 0x14, 0xf2, 0xff, 0x04, 0x05, 0xc5, 0xda, 0x01,
  0x10, 0x22, 0x08, 0xf4, 0xc0, 0xd6, 0x2b, 0x3b, 0x05, 0x2d, 0x2b, 0x0f,
  0x2b, 0x08, 0xf5, 0x08, 0x4d, 0x0e, 0x23, 0xfe, 0xe8, 0xab, 0x4a, 0x18,
  0xce, 0x13, 0x39, 0xff, 0x49, 0x0c, 0xfb, 0x0a, 0x23, 0x0f, 0x29, 0xf2,
  0x27, 0x50, 0xc9, 0x07, 0xe8, 0xdc, 0xd7, 0xee, 0xd2, 0x26, 0x04, 0xd7,
  0x2f, 0x18, 0x0e, 0x11, 0xf8, 0x4b, 0xfd, 0x2d, 0x0d, 0xf4, 0xde, 0x07,
  0xe0, 0xfb, 0xd7, 0xd4, 0x45, 0x06, 0x00, 0x05, 0xe5, 0x1c, 0x15, 0x35,
  0xe4, 0x02, 0xf3, 0xed, 0xf2, 0xf7, 0xed, 0xe2, 0x6d, 0xfd, 0x0d, 0xf4,
  0x24, 0x64, 0xd2, 0xe5, 0xe3, 0xf6, 0xfb, 0xf7, 0xd4, 0x5f, 0x16, 0x05,
  0x0b, 0xfc, 0xe4, 0x2c, 0x27, 0x68, 0xdf, 0x17, 0xf5, 0xe4, 0xfd, 0xe2,
  0x06, 0x3b, 0x26, 0xf8, 0x39, 0x12, 0x09, 0x16, 0x10, 0x29, 0xde, 0x34,
  0xcc, 0xe3, 0xdf, 0x19, 0xce, 0x38, 0xef, 0x09, 0x7f, 0x0b, 0x17, 0xe8,
  0x92, 0xed, 0xff, 0xff, 0x04, 0x00, 0x00, 0x00, 0x40, 0x00, 0x00, 0x00,
  0xc0, 0x02, 0x00, 0x00, 0xcc, 0xfb, 0xff, 0xff, 0xf3, 0x00, 0x00, 0x00,
  0x4b, 0xfd, 0xff, 0xff, 0x1e, 0xfe, 0xff, 0xff, 0x56, 0xfe, 0xff, 0xff,
  0x51, 0x01, 0x00, 0x00, 0xce, 0x00, 0x00, 0x00, 0xc2, 0xfe, 0xff, 0xff,
  0xbf, 0x03, 0x00, 0x00, 0x6c, 0xfd, 0xff, 0xff, 0x20, 0x0b, 0x00, 0x00,
  0xe7, 0xfb, 0xff, 0xff, 0x4a, 0xfd, 0xff, 0xff, 0xe3, 0xfd, 0xff, 0xff,
  0x5a, 0xff, 0xff, 0xff, 0xde, 0xed, 0xff, 0xff, 0x04, 0x00, 0x00, 0x00,
  0x00, 0x09, 0x00, 0x00, 0x2e, 0x32, 0xfb, 0xd1, 0x27, 0x52, 0x56, 0x2d,
  0x18, 0x30, 0x3e, 0xda, 0x07, 0x1b, 0x52, 0xb9, 0x05, 0xc6, 0xab, 0xdb,
  0x81, 0x25, 0x05, 0x82, 0xc6, 0x3d, 0xf2, 0xcc, 0xd4, 0xbf, 0xad, 0xc4,
  0xdb, 0xb1, 0x8f, 0xd4, 0xf9, 0x0f, 0xe2, 0x94, 0xbf, 0x1b, 0xb6, 0xec,
  0xd6, 0x99, 0xde, 0xbd, 0xcb, 0x39, 0x02, 0x35, 0x41, 0x3e, 0x1c, 0x2b,
  0x24, 0xe5, 0x1e, 0xd0, 0x1d, 0x0a, 0x59, 0xe0, 0xf4, 0xf9, 0xa2, 0xde,
  0xd8, 0x19, 0xf8, 0xeb, 0xfc, 0xfe, 0xec, 0xc6, 0xf3, 0x13, 0xe8, 0x0b,
  0xe0, 0xe5, 0xae, 0xe0, 0xd7, 0xd9, 0xbc, 0xb0, 0xb2, 0x0c, 0xb4, 0xde,
  0x06, 0xd3, 0xe4, 0xa9, 0x0f, 0x50, 0x19, 0x2d, 0x61, 0x5f, 0x11, 0x2c,
  0x47, 0xe9, 0x34, 0xd0, 0x3c, 0x50, 0x57, 0xf4, 0xf7, 0x3f, 0x00, 0x1f,
  0x0c, 0x34, 0xf3, 0xd4, 0x39, 0x06, 0x00, 0x8f, 0x12, 0x34, 0x54, 0xed,
  0x03, 0xdd, 0x9d, 0xc8, 0x04, 0x28, 0xda, 0xb8, 0xd3, 0xea, 0xee, 0xeb,
  0xe3, 0x0c, 0x19, 0xb2, 0x31, 0xf7, 0x3e, 0xf7, 0xfe, 0x03, 0x3f, 0x29,
  0x53, 0x61, 0x10, 0x26, 0xcc, 0xae, 0xeb, 0x1a, 0xf2, 0xdd, 0x20, 0xda,
  0x6c, 0xfc, 0x5c, 0x7f, 0xfd, 0x1a, 0x26, 0x44, 0xef, 0xb8, 0x6b, 0x25,
  0xb3, 0x2e, 0x10, 0x1f, 0x2b, 0xe2, 0x39, 0x4b, 0x36, 0xed, 0x18, 0xf7,
  0x18, 0x17, 0x2f, 0x09, 0xc8, 0x02, 0x13, 0x13, 0xfa, 0xc0, 0xd5, 0xfc,
  0xd0, 0xe4, 0xfa, 0x3c, 0xdb, 0x04, 0xd3, 0x30, 0xf0, 0xe7, 0x2c, 0x57,
  0x2a, 0xd7, 0xdf, 0x0a, 0x00, 0xdc, 0x05, 0xf6, 0x00, 0x05, 0x01, 0x34,
  0xb3, 0x43, 0x27, 0x5f, 0x15, 0x12, 0xc6, 0x03, 0x27, 0xbe, 0x0f, 0xf3,
  0x08, 0x29, 0x05, 0x61, 0xca, 0xa3, 0x03, 0xbb, 0xeb, 0xa2, 0xa6, 0xd8,
  0x9c, 0xe1, 0xd9, 0x1c, 0xb2, 0xb5, 0x9b, 0x2b, 0xe0, 0xde, 0x3d, 0x16,
  0x0d, 0xaa, 0xdf, 0xf8, 0xfe, 0xb1, 0xd6, 0xe0, 0xba, 0x04, 0xac, 0x44,
  0xbf, 0x4d, 0x65, 0x0a, 0x19, 0xf8, 0xf7, 0x35, 0x42, 0xcd, 0x10, 0xf3,
  0xf4, 0x35, 0x00, 0x4f, 0xed, 0xa9, 0x17, 0xe2, 0xdb, 0xb7, 0xe4, 0xe5,
  0xf6, 0xfb, 0xd6, 0x33, 0x95, 0x91, 0xc7, 0x00, 0xc8, 0xd8, 0x11, 0x05,
  0x2f, 0xbe, 0xfc, 0x2b, 0x14, 0xc0, 0x05, 0x1d, 0xe5, 0xc8, 0x2c, 0x05,
  0x9c, 0x48, 0x2e, 0x34, 0x28, 0x0f, 0x0c, 0x5c, 0x44, 0xea, 0x2d, 0x07,
  0x11, 0x3c, 0x43, 0x2e, 0xc2, 0xe3, 0xec, 0xe2, 0xca, 0x92, 0x8f, 0xb4,
  0xdb, 0xc7, 0xa9, 0x42, 0xf2, 0xdb, 0xc8, 0x1b, 0xb9, 0xed, 0x3a, 0x20,
  0x3b, 0xdb, 0xd6, 0x29, 0x22, 0xb2, 0xfc, 0x08, 0xea, 0xfb, 0x1d, 0x18,
  0xcf, 0x42, 0x67, 0x43, 0x5c, 0x06, 0x17, 0x47, 0x58, 0xc5, 0x34, 0x08,
  0x0e, 0x60, 0x2c, 0x5d, 0xea, 0xd7, 0x16, 0xe2, 0xdd, 0xad, 0xe6, 0xe5,
  0xcc, 0x18, 0xe6, 0x48, 0xcb, 0xd6, 0xaf, 0x37, 0xf2, 0xfc, 0x21, 0x04,
  0x2b, 0xee, 0xf6, 0x17, 0x1b, 0x21, 0xfb, 0x3b, 0xe7, 0xf8, 0x02, 0x25,
  0xf2, 0x10, 0x7f, 0x42, 0x1e, 0x18, 0x14, 0x50, 0x4a, 0x34, 0x22, 0x11,
  0xfa, 0x22, 0x0d, 0x3f, 0x01, 0xed, 0xab, 0x04, 0xf6, 0x00, 0xa8, 0xdb,
  0x99, 0xd4, 0x13, 0x3b, 0xe0, 0x20, 0xfb, 0xe2, 0xe8, 0xe1, 0x08, 0x04,
  0xd9, 0xf5, 0xb8, 0xc4, 0xe8, 0xe1, 0x09, 0x11, 0xde, 0xee, 0xbc, 0xfa,
  0x05, 0x07, 0x00, 0x0f, 0x35, 0x04, 0xe3, 0x03, 0x23, 0x11, 0x0f, 0x3b,
  0xd8, 0x0a, 0x14, 0xed, 0x8f, 0xf2, 0xea, 0xab, 0x1d, 0xda, 0xe2, 0xe8,
  0x12, 0x03, 0xa1, 0x0b, 0xec, 0x8b, 0x16, 0xd7, 0x9f, 0xde, 0xef, 0xb4,
  0xce, 0x17, 0xcb, 0xd0, 0x57, 0xeb, 0xd1, 0x10, 0xe9, 0xc0, 0x1e, 0xac,
  0xb1, 0x02, 0xba, 0xde, 0xe2, 0xf1, 0xbf, 0xf3, 0x29, 0x0e, 0xe4, 0xf6,
  0xf6, 0xec, 0xf6, 0xd5, 0xc1, 0x3e, 0x54, 0x31, 0x49, 0x03, 0x16, 0x3d,
  0x4f, 0x18, 0x01, 0x27, 0x31, 0xf0, 0x65, 0xfc, 0xe4, 0x20, 0x2d, 0x51,
  0x25, 0x2e, 0x03, 0x48, 0x59, 0x39, 0x14, 0x40, 0x15, 0x26, 0x7f, 0x02,
  0x06, 0x1c, 0x17, 0x28, 0x1f, 0x01, 0x32, 0x3e, 0x4e, 0x1e, 0x30, 0x41,
  0x17, 0x34, 0x41, 0x30, 0xf0, 0xcd, 0x15, 0xeb, 0x19, 0xd9, 0x18, 0x1b,
  0x19, 0x1a, 0xde, 0xf8, 0xd4, 0xab, 0xdd, 0x3f, 0xb0, 0x07, 0x18, 0x06,
  0x38, 0x10, 0x2c, 0x50, 0x0e, 0xc0, 0x19, 0xf4, 0xe7, 0xf3, 0x2a, 0x41,
  0x81, 0x37, 0x38, 0x3b, 0x15, 0x0c, 0x0c, 0x4b, 0x04, 0xc7, 0x1f, 0xf7,
  0x11, 0x16, 0xf4, 0x28, 0xdc, 0xda, 0x22, 0x0e, 0xee, 0xab, 0xc7, 0xd8,
  0xd6, 0xd9, 0xe7, 0x07, 0xdf, 0xcd, 0xcc, 0x1b, 0xf4, 0x16, 0x25, 0x48,
  0x2f, 0xd0, 0xe8, 0x2b, 0xf7, 0xd9, 0x20, 0xf6, 0xf3, 0x1c, 0x05, 0x25,
  0xdb, 0x3c, 0x30, 0x40, 0x3f, 0x12, 0x19, 0x3f, 0x21, 0xf0, 0x1e, 0xed,
  0x01, 0x5f, 0xfe, 0x6f, 0xa1, 0xb7, 0x0e, 0xc8, 0xca, 0x94, 0x8a, 0xbc,
  0xba, 0x94, 0xb2, 0x1c, 0xbd, 0xcc, 0x94, 0x1a, 0xc5, 0xdc, 0x17, 0xf3,
  0x1c, 0xc4, 0xf0, 0x0a, 0xf6, 0xac, 0xf7, 0x0e, 0xd1, 0xf5, 0xdb, 0x2e,
  0xe0, 0x1f, 0x65, 0xfc, 0x20, 0xec, 0x19, 0x4a, 0x13, 0xfa, 0x0d, 0x06,
  0x01, 0x0e, 0x15, 0x30, 0x2e, 0x44, 0xe1, 0x12, 0xdf, 0x33, 0xfa, 0xf5,
  0xcf, 0xe8, 0x2a, 0xe4, 0x36, 0x7f, 0x1a, 0xfa, 0x26, 0x17, 0xd8, 0x01,
  0x99, 0x14, 0xcb, 0x95, 0xd1, 0x2a, 0xf7, 0xf5, 0x2e, 0x46, 0xc1, 0xec,
  0x68, 0xc9, 0xd0, 0xd7, 0xbc, 0xf2, 0xf2, 0xa1, 0xbc, 0x2c, 0xfe, 0xf8,
  0x0a, 0x10, 0xd2, 0xe8, 0x21, 0x01, 0xfb, 0xf8, 0x41, 0x55, 0x41, 0x67,
  0x3f, 0x1f, 0x31, 0xeb, 0x05, 0xfc, 0x38, 0xcd, 0x2b, 0x08, 0xc1, 0xad,
  0xca, 0x3b, 0x3c, 0xe2, 0xec, 0x49, 0x04, 0xf5, 0xee, 0xed, 0x00, 0xbb,
  0x2e, 0xc7, 0xb3, 0xb5, 0xb4, 0xf8, 0x14, 0xb1, 0xc3, 0x1e, 0xe2, 0xef,
  0xe7, 0xc8, 0xec, 0xa0, 0x2a, 0x38, 0xf7, 0x55, 0x4d, 0x6c, 0x43, 0x3c,
  0x54, 0x17, 0x25, 0xe1, 0x44, 0xfe, 0x60, 0xc8, 0x12, 0x0d, 0xf8, 0x18,
  0x03, 0x2b, 0x15, 0x18, 0x04, 0x17, 0x04, 0xfa, 0x0f, 0xeb, 0x3b, 0xad,
  0x35, 0xd6, 0x9a, 0xdc, 0xda, 0xf1, 0xff, 0xc6, 0xba, 0xf2, 0xe3, 0xf4,
  0xf7, 0xde, 0x08, 0xb8, 0xc3, 0xc9, 0xea, 0x05, 0xe2, 0xec, 0xe6, 0xe2,
  0xd9, 0xd4, 0xe0, 0x19, 0xe1, 0xe4, 0x05, 0xd9, 0xa7, 0xf5, 0x31, 0x30,
  0x21, 0xd8, 0xe3, 0x23, 0x43, 0xd0, 0xff, 0x08, 0xfe, 0xcd, 0x25, 0xf2,
  0xd0, 0x37, 0x49, 0x0e, 0x39, 0x19, 0x07, 0x3c, 0x4a, 0xf4, 0x3f, 0x12,
  0x04, 0x1c, 0x42, 0xfb, 0xd5, 0xf4, 0xbe, 0xde, 0xd5, 0xee, 0xbf, 0xce,
  0xb5, 0xdf, 0xd6, 0x38, 0xf8, 0xf9, 0xfa, 0xfb, 0xcd, 0xf9, 0x34, 0x11,
  0xfb, 0xce, 0xaf, 0xde, 0x2d, 0xcc, 0xd8, 0x14, 0xf6, 0x05, 0xf3, 0xf0,
  0xe8, 0x02, 0x5d, 0x44, 0x1f, 0x0c, 0xf1, 0x0c, 0x7f, 0x14, 0x0b, 0x08,
  0x0e, 0x0a, 0x1b, 0x04, 0x04, 0xfe, 0xf5, 0xda, 0x0a, 0xf6, 0x01, 0x24,
  0xbf, 0x2a, 0x06, 0x4b, 0xd9, 0x03, 0x20, 0x27, 0x36, 0xfa, 0x0d, 0xfc,
  0xe6, 0xf3, 0x19, 0x07, 0x00, 0x64, 0x09, 0x4d, 0xfd, 0xfa, 0xe5, 0x18,
  0x1b, 0x1f, 0x27, 0x4c, 0xde, 0x09, 0x0e, 0x0c, 0x2d, 0x72, 0x1c, 0x0e,
  0xfc, 0x05, 0xc6, 0x3b, 0x40, 0xf1, 0x41, 0xe1, 0x1e, 0x14, 0x31, 0x02,
  0x1e, 0x11, 0x2d, 0x31, 0x02, 0x09, 0xd5, 0xf7, 0x01, 0x28, 0x26, 0x26,
  0x34, 0x32, 0x43, 0x46, 0x29, 0x3f, 0x06, 0x26, 0x17, 0x11, 0x50, 0x1c,
  0x3c, 0xd9, 0x07, 0x02, 0x29, 0x1e, 0x31, 0x15, 0x4c, 0x49, 0x1f, 0x21,
  0xe9, 0xaa, 0x20, 0xb4, 0x20, 0x04, 0x03, 0xe5, 0xf1, 0xfd, 0x19, 0x06,
  0x11, 0x13, 0xd9, 0x1d, 0xcd, 0xce, 0x17, 0xd1, 0xab, 0x1b, 0xbe, 0xee,
  0x15, 0x0c, 0xde, 0x09, 0xcb, 0x17, 0xea, 0xfb, 0x27, 0x09, 0x16, 0x0a,
  0x8c, 0xdc, 0xf7, 0x11, 0xd5, 0x08, 0x89, 0xa2, 0xd3, 0x07, 0xd1, 0xe1,
  0xf2, 0x17, 0xfa, 0x02, 0xf6, 0xf3, 0xfb, 0x17, 0xeb, 0xc9, 0xf3, 0x0c,
  0x4c, 0x9c, 0xd3, 0x1b, 0x19, 0xd4, 0xe6, 0xfb, 0xd6, 0x25, 0xdf, 0xfe,
  0x0a, 0x26, 0xdf, 0x18, 0xef, 0xd4, 0x24, 0x2e, 0x2c, 0x10, 0x13, 0x11,
  0x13, 0x12, 0xba, 0xbb, 0xb3, 0xe7, 0xf1, 0xd3, 0x9a, 0xe9, 0x08, 0xd4,
  0xf2, 0x43, 0xf2, 0x7f, 0x1b, 0x24, 0xd3, 0x16, 0xd0, 0xdc, 0xa3, 0xeb,
  0xc1, 0xf7, 0xeb, 0xe0, 0xfe, 0x37, 0x0b, 0x32, 0xf9, 0x0d, 0xf5, 0x14,
  0xcf, 0xb2, 0x9f, 0xc8, 0xfe, 0xab, 0xcc, 0xde, 0x0e, 0x39, 0xc8, 0x33,
  0xc4, 0x27, 0x2e, 0x1a, 0xf4, 0xd0, 0xcb, 0x08, 0x0b, 0x9e, 0xf9, 0xe5,
  0x1d, 0x58, 0x03, 0x4c, 0x1b, 0x1a, 0x0f, 0xeb, 0x20, 0xe9, 0x28, 0x22,
  0xd1, 0x0e, 0x10, 0x08, 0x15, 0x15, 0xff, 0x16, 0x53, 0xff, 0x02, 0x03,
  0xe0, 0x08, 0x4f, 0x15, 0x08, 0x23, 0x2a, 0x14, 0x24, 0x1c, 0xf9, 0x01,
  0x46, 0x33, 0x3e, 0xe5, 0x13, 0x1b, 0x66, 0x51, 0x36, 0x00, 0x55, 0x0a,
  0x0c, 0x4f, 0xf4, 0x3b, 0xfe, 0xf2, 0xdc, 0xf8, 0x18, 0xfd, 0xff, 0xfd,
  0xcb, 0x13, 0xf0, 0x10, 0x16, 0xac, 0x01, 0x81, 0x2e, 0xb5, 0x01, 0xfb,
  0xd7, 0x22, 0x09, 0xf1, 0x07, 0x3f, 0x0e, 0x02, 0xf2, 0x94, 0x02, 0xb3,
  0x12, 0xc5, 0x20, 0x2b, 0xeb, 0x0b, 0x10, 0xe6, 0x2a, 0x24, 0xf9, 0xfa,
  0xeb, 0xa8, 0xe8, 0xa8, 0xc7, 0xf5, 0xb5, 0x04, 0x10, 0x32, 0x07, 0xdf,
  0xbc, 0xf0, 0xf1, 0xa7, 0xd5, 0x99, 0xea, 0x94, 0x8f, 0x02, 0xdc, 0x0d,
  0xf7, 0x1c, 0xd3, 0xec, 0x11, 0xde, 0x04, 0xdf, 0x16, 0xca, 0xbc, 0xf3,
  0xb5, 0xfe, 0x10, 0x06, 0x0c, 0x19, 0x02, 0xd6, 0x20, 0xdb, 0xcd, 0xd5,
  0xfe, 0xd5, 0x0e, 0xe7, 0xd0, 0x13, 0xe1, 0x33, 0xdf, 0xf1, 0xda, 0xc2,
  0xc8, 0xdf, 0xca, 0xd5, 0x1f, 0xd1, 0x02, 0xd5, 0xee, 0x1b, 0xf2, 0xee,
  0xf9, 0xe6, 0xce, 0xf8, 0xe9, 0x08, 0xef, 0x0c, 0x1f, 0x4a, 0x02, 0x0b,
  0x48, 0xe5, 0x28, 0x01, 0x0f, 0x08, 0x28, 0x1a, 0x20, 0x38, 0x0e, 0xf0,
  0xfe, 0x17, 0xf4, 0x1d, 0x0f, 0x35, 0x05, 0xe5, 0x2f, 0x3a, 0x3b, 0x1e,
  0xff, 0x13, 0x37, 0xe2, 0x26, 0x5b, 0x1c, 0x18, 0x42, 0x20, 0xd8, 0xaf,
  0xd8, 0x4a, 0x14, 0xe5, 0xe6, 0x7f, 0x1f, 0x13, 0x16, 0x1e, 0x22, 0x1f,
  0x32, 0xe8, 0xb9, 0xe6, 0xf6, 0x09, 0x24, 0xfa, 0xfc, 0x6d, 0x10, 0x1f,
  0xfb, 0x0e, 0xdf, 0x0a, 0xf9, 0xe2, 0x2c, 0xe8, 0xfd, 0x15, 0x2c, 0x07,
  0x0e, 0x09, 0xd4, 0x33, 0xec, 0x81, 0x07, 0xb3, 0xd6, 0xe7, 0x12, 0xee,
  0x19, 0x10, 0x0e, 0x28, 0xf9, 0xf9, 0xe0, 0x36, 0xf7, 0xb0, 0x2c, 0xcb,
  0xf5, 0xfb, 0xea, 0x0b, 0xf5, 0xf1, 0xf9, 0xe4, 0x0a, 0xfd, 0xdf, 0x08,
  0x01, 0xc2, 0x17, 0xe7, 0xf2, 0xf4, 0xe2, 0x2b, 0xe8, 0xf7, 0xcd, 0xff,
  0xe9, 0xf2, 0xde, 0x0c, 0xfe, 0x06, 0xf4, 0x0b, 0xf8, 0x0d, 0xfe, 0x2f,
  0x16, 0xff, 0xdc, 0x07, 0x13, 0xe3, 0x0f, 0x09, 0x0c, 0x0f, 0xf8, 0x24,
  0x1e, 0x00, 0x10, 0x1c, 0xe1, 0x10, 0xc7, 0xec, 0x06, 0xfb, 0x11, 0xfb,
  0x11, 0x33, 0xef, 0x1b, 0xea, 0x13, 0x02, 0xf0, 0x1e, 0xf9, 0xfe, 0x08,
  0xfd, 0x00, 0x09, 0x16, 0xfb, 0x2b, 0x05, 0x40, 0xe0, 0x1c, 0xfd, 0xf7,
  0x1b, 0x10, 0xf7, 0x09, 0x07, 0x2c, 0x09, 0x1b, 0x00, 0x43, 0x15, 0x2e,
  0x08, 0x07, 0x0d, 0xe9, 0x04, 0x11, 0x03, 0xf9, 0x01, 0x24, 0x17, 0x00,
  0xfa, 0x35, 0x04, 0x3f, 0x25, 0xcf, 0x6b, 0xfd, 0x29, 0x21, 0x50, 0x29,
  0x54, 0x40, 0x1a, 0x23, 0xdb, 0x81, 0x21, 0xde, 0xe0, 0xc8, 0x09, 0x00,
  0x30, 0x2c, 0x40, 0x5a, 0x03, 0x1b, 0x22, 0x39, 0xcf, 0x8d, 0x6c, 0xdb,
  0xb4, 0x25, 0xd9, 0x08, 0xee, 0x08, 0xf6, 0x0c, 0x0c, 0xe5, 0x17, 0xe1,
  0xf0, 0xf3, 0x12, 0x10, 0xbf, 0xf3, 0x0c, 0x42, 0xee, 0xd3, 0xa9, 0xdf,
  0xf6, 0xe6, 0xce, 0x09, 0x30, 0x16, 0xfa, 0x01, 0xce, 0xf4, 0x13, 0x49,
  0x13, 0xfb, 0xf1, 0x10, 0xfb, 0xcb, 0xf3, 0x1c, 0x0d, 0x11, 0x0d, 0x03,
  0xfb, 0x12, 0xf4, 0x25, 0x0b, 0xfe, 0xdb, 0xeb, 0x05, 0xf2, 0xfa, 0xef,
  0xe7, 0x2d, 0xe1, 0x34, 0xc8, 0x40, 0xe5, 0xd8, 0xca, 0xc6, 0xe2, 0xef,
  0xc0, 0x09, 0x00, 0xf5, 0x0c, 0x3b, 0xac, 0x7b, 0xf8, 0x18, 0x09, 0x0f,
  0xfe, 0xf3, 0x09, 0xe9, 0xfe, 0xe1, 0x0c, 0xeb, 0x12, 0x3e, 0xc5, 0x40,
  0xf9, 0xe7, 0x4d, 0xdb, 0xed, 0xef, 0x09, 0xfe, 0x0a, 0x28, 0xe6, 0x0a,
  0xea, 0xe1, 0xd1, 0x0f, 0xcd, 0x23, 0x97, 0xd0, 0x0b, 0x34, 0x11, 0x15,
  0x9c, 0x16, 0x04, 0xde, 0xf8, 0x0f, 0x3c, 0xe5, 0xc9, 0xe2, 0x02, 0x18,
  0xb5, 0xdc, 0xae, 0x90, 0x24, 0x03, 0xe5, 0x81, 0xf1, 0xd8, 0xa6, 0xf7,
  0xf8, 0xcd, 0x42, 0x19, 0x0f, 0x1a, 0x13, 0xe2, 0x1c, 0xf0, 0xe6, 0xfc,
  0xf2, 0xa5, 0xf7, 0x8f, 0x18, 0x05, 0xfc, 0xef, 0x3d, 0x1e, 0x32, 0x2f,
  0x08, 0x0c, 0x06, 0x03, 0xf1, 0xe8, 0x3c, 0xe3, 0x02, 0x34, 0xd0, 0xe3,
  0xcb, 0x08, 0x01, 0xbd, 0xf8, 0x0a, 0xe1, 0xdb, 0x2e, 0x19, 0xe5, 0x22,
  0xec, 0xfc, 0xde, 0x17, 0xc5, 0xf9, 0xc7, 0xb6, 0xe9, 0x10, 0xe0, 0xef,
  0x14, 0x0a, 0xf0, 0xd1, 0xee, 0x10, 0x28, 0x26, 0x4e, 0x10, 0x09, 0x12,
  0x4c, 0x03, 0xfb, 0xfd, 0x0b, 0x19, 0x3b, 0xeb, 0x0f, 0x24, 0xec, 0xc5,
  0x20, 0x2d, 0x14, 0x34, 0xde, 0x39, 0x1a, 0x21, 0x17, 0x1c, 0x35, 0x23,
  0x1b, 0x14, 0xd6, 0xf3, 0xc9, 0x01, 0x16, 0xdc, 0xe3, 0x1c, 0x17, 0xe1,
  0x12, 0x15, 0xf8, 0x1b, 0x81, 0xbf, 0x0e, 0x07, 0x10, 0xbd, 0xc1, 0xf0,
  0xca, 0xa4, 0xa8, 0xd8, 0xbd, 0xbc, 0xe4, 0xf4, 0x9c, 0x18, 0xfc, 0x18,
  0x10, 0xd1, 0xc5, 0xfe, 0x03, 0x88, 0xef, 0xcb, 0x01, 0xfa, 0xf1, 0x13,
  0x9a, 0x42, 0x2b, 0x38, 0xef, 0xfe, 0xeb, 0x1a, 0x09, 0xb9, 0x1d, 0xda,
  0x35, 0x3c, 0xf9, 0x27, 0xef, 0xd9, 0x15, 0x01, 0xe5, 0xb3, 0xc8, 0xc9,
  0xca, 0xec, 0xc5, 0xf9, 0xe4, 0xf7, 0xe8, 0x0b, 0x06, 0xea, 0x36, 0x14,
  0xf8, 0xf0, 0xda, 0x07, 0x21, 0xe0, 0x0a, 0x17, 0x02, 0xf8, 0x07, 0x06,
  0x17, 0x33, 0x44, 0x1a, 0x19, 0x18, 0x33, 0x2f, 0x52, 0x18, 0x27, 0x05,
  0x0d, 0x27, 0xf6, 0x28, 0xf8, 0xd4, 0xe8, 0xe1, 0xcf, 0xb8, 0xe7, 0xed,
  0xd1, 0xfd, 0xdb, 0x42, 0xee, 0xf2, 0xd1, 0x08, 0x17, 0xf5, 0x05, 0x03,
  0xfb, 0xf8, 0x24, 0x05, 0x0e, 0x2f, 0x06, 0x3d, 0xd8, 0xf4, 0xfd, 0xde,
  0x34, 0x0b, 0x2d, 0x22, 0x1a, 0x09, 0x3c, 0x2e, 0x3f, 0x29, 0x3f, 0x1a,
  0xea, 0x14, 0x00, 0x1c, 0xd2, 0xd9, 0x28, 0xfb, 0x20, 0xd0, 0xf9, 0xe5,
  0xde, 0xe7, 0xad, 0x58, 0xaa, 0x91, 0x37, 0x99, 0xde, 0xcf, 0x09, 0x02,
  0x05, 0xc9, 0xc6, 0xeb, 0x0d, 0x08, 0xbc, 0x56, 0xe2, 0xbe, 0x56, 0xc1,
  0xe9, 0xf1, 0x15, 0x2e, 0xea, 0xf7, 0xdc, 0xff, 0x1b, 0xf9, 0x14, 0x2b,
  0x0b, 0xf7, 0x4a, 0xd4, 0x81, 0xfd, 0xca, 0xd5, 0x06, 0xd0, 0x9f, 0xf9,
  0x1a, 0xbb, 0x96, 0x27, 0xfb, 0xd0, 0xfe, 0xed, 0xa4, 0x03, 0xf2, 0x21,
  0x09, 0x0e, 0x8a, 0x10, 0x3a, 0xc4, 0xff, 0xf1, 0xef, 0xef, 0x36, 0xe1,
  0xed, 0x1f, 0x0d, 0x13, 0xf6, 0x0d, 0xb1, 0xeb, 0x38, 0xfe, 0xfa, 0x0f,
  0x0a, 0x59, 0x05, 0xfc, 0x19, 0x03, 0x2d, 0x1d, 0x33, 0x1d, 0x14, 0x21,
  0x48, 0x1d, 0xfc, 0x49, 0x1a, 0xf3, 0x1b, 0x39, 0xfe, 0x13, 0x11, 0x06,
  0x46, 0x2c, 0x0a, 0x50, 0x30, 0x4c, 0x2c, 0x62, 0x1a, 0x28, 0x3b, 0x53,
  0xf8, 0x3c, 0x36, 0x11, 0xdc, 0x00, 0x05, 0x1c, 0x25, 0x34, 0x1c, 0x16,
  0x0c, 0x58, 0xf3, 0x46, 0x42, 0x3a, 0x65, 0x34, 0xfa, 0x31, 0x36, 0xf3,
  0x47, 0x52, 0x4f, 0xb9, 0x44, 0x2f, 0xc2, 0x2b, 0x4e, 0x0b, 0xf0, 0xfa,
  0x1c, 0x56, 0x7f, 0x42, 0xc4, 0x4f, 0x56, 0x2a, 0x04, 0xf6, 0x00, 0x0f,
  0x37, 0xe3, 0xf1, 0xcf, 0x15, 0x08, 0x3d, 0x0d, 0xe8, 0x41, 0xea, 0x17,
  0xcd, 0xb7, 0x0e, 0x0d, 0x3f, 0x0e, 0x14, 0x0c, 0xe3, 0x2b, 0x40, 0xf0,
  0x10, 0x36, 0x48, 0xbe, 0x14, 0x1a, 0xe4, 0x06, 0x2f, 0xec, 0xef, 0xf6,
  0x05, 0x1b, 0x35, 0x2d, 0xdc, 0x05, 0xf4, 0x01, 0x14, 0x0c, 0xe9, 0x09,
  0xdd, 0xc1, 0xe6, 0xeb, 0x27, 0x01, 0xfc, 0x0f, 0xc3, 0xeb, 0xdf, 0xea,
  0xec, 0xcf, 0x14, 0x07, 0x0e, 0x23, 0xb2, 0x05, 0xaf, 0xe0, 0x19, 0xd7,
  0xd3, 0xe9, 0x09, 0xd2, 0xe8, 0x11, 0xd3, 0x03, 0xdd, 0x12, 0xc8, 0xea,
  0xd6, 0xd3, 0xc6, 0xcd, 0xe1, 0xbe, 0xe8, 0xc0, 0x14, 0x23, 0xce, 0x1b,
  0xe4, 0xe0, 0xbc, 0xdd, 0x1b, 0xc2, 0xc0, 0xdf, 0xe1, 0xb0, 0xe6, 0xe4,
  0x06, 0xf3, 0x0c, 0xe6, 0xea, 0xf6, 0xff, 0xff, 0x04, 0x00, 0x00, 0x00,
  0x40, 0x00, 0x00, 0x00, 0x17, 0xfa, 0xff, 0xff, 0x9f, 0xff, 0xff, 0xff,
  0x07, 0x01, 0x00, 0x00, 0x02, 0xff, 0xff, 0xff, 0x3d, 0x00, 0x00, 0x00,
  0x49, 0x02, 0x00, 0x00, 0x23, 0x02, 0x00, 0x00, 0x26, 0x01, 0x00, 0x00,
  0xaf, 0x00, 0x00, 0x00, 0xf0, 0xfd, 0xff, 0xff, 0x3c, 0x00, 0x00, 0x00,
  0xa1, 0xff, 0xff, 0xff, 0x87, 0xfd, 0xff, 0xff, 0xb6, 0xff, 0xff, 0xff,
  0xdc, 0xff, 0xff, 0xff, 0x12, 0xff, 0xff, 0xff, 0x36, 0xf7, 0xff, 0xff,
  0x04, 0x00, 0x00, 0x00, 0x00, 0x08, 0x00, 0x00, 0x09, 0xb0, 0xd9, 0x25,
  0xc1, 0x59, 0x05, 0xcd, 0x52, 0xee, 0xbe, 0x8e, 0xff, 0x0a, 0x02, 0xc7,
  0xe9, 0xc8, 0xfa, 0x34, 0xe9, 0x42, 0xfb, 0x16, 0x11, 0xec, 0xdc, 0xa7,
  0xfc, 0xff, 0x14, 0xd5, 0xea, 0x0d, 0x13, 0x2a, 0xd8, 0x0f, 0x32, 0xde,
  0xeb, 0xe4, 0xdf, 0xec, 0xe7, 0xe2, 0xfc, 0x13, 0xf5, 0x14, 0x28, 0x2e,
  0x08, 0x0f, 0x07, 0x23, 0xef, 0xf1, 0x15, 0x1b, 0x08, 0xf5, 0x30, 0xe0,
  0xf1, 0x21, 0xf0, 0x00, 0xf1, 0x01, 0xee, 0x32, 0xe3, 0xc4, 0xda, 0xeb,
  0xda, 0xc3, 0xf9, 0x35, 0x11, 0x48, 0x23, 0x0c, 0x1f, 0xd9, 0xfc, 0x01,
  0xd8, 0xd0, 0xfd, 0x31, 0xe2, 0xff, 0x03, 0x0c, 0x08, 0x1b, 0x19, 0x29,
  0x08, 0xed, 0x1b, 0x0e, 0xe2, 0x16, 0x12, 0xe8, 0x1b, 0x06, 0x33, 0xc7,
  0x0a, 0x00, 0x00, 0x25, 0x0d, 0x02, 0x12, 0xfd, 0xee, 0x14, 0x05, 0x1a,
  0x0b, 0x0b, 0x1b, 0xea, 0x1e, 0xf9, 0x03, 0x0f, 0xe4, 0x00, 0x0e, 0x21,
  0xe4, 0x18, 0x38, 0x36, 0x1c, 0xe4, 0x2b, 0xdd, 0x03, 0xf7, 0x0e, 0xfb,
  0xe5, 0xf6, 0x33, 0x07, 0xde, 0x19, 0x1b, 0x05, 0xe8, 0xf4, 0x23, 0xf6,
  0x06, 0x34, 0x08, 0x04, 0xf5, 0xfb, 0x11, 0x0f, 0xf5, 0xe8, 0x08, 0x0e,
  0x1c, 0xdd, 0xfc, 0x03, 0xed, 0x1f, 0xfc, 0xd8, 0x1d, 0xb4, 0xee, 0x25,
  0xf2, 0x04, 0x25, 0x2f, 0xda, 0xd9, 0xeb, 0x4d, 0x09, 0x29, 0x18, 0xff,
  0x38, 0xe1, 0xd7, 0xda, 0x02, 0xf2, 0x07, 0x0f, 0xee, 0xf9, 0x06, 0xed,
  0xde, 0x1c, 0x4d, 0x06, 0x3b, 0xc9, 0x44, 0xdf, 0x1e, 0xfa, 0x0f, 0xef,
  0x07, 0x40, 0x24, 0xae, 0xd7, 0x0a, 0x37, 0x05, 0x0d, 0xde, 0x36, 0xca,
  0x56, 0x03, 0xfd, 0x0c, 0xed, 0x3a, 0x26, 0xae, 0xff, 0xf3, 0xfc, 0xf9,
  0xf8, 0x0b, 0xfc, 0xfe, 0x19, 0xf7, 0xea, 0x00, 0x17, 0x02, 0xfc, 0xfd,
  0x21, 0xe1, 0xb8, 0xfc, 0xc0, 0x38, 0xeb, 0x0d, 0xe1, 0xfd, 0xed, 0xce,
  0x1c, 0xbb, 0x02, 0x35, 0x12, 0x0a, 0xe9, 0xf0, 0x00, 0x05, 0xe3, 0x48,
  0xd5, 0xf2, 0x1c, 0x35, 0xf4, 0xc5, 0xf4, 0x3d, 0x02, 0xec, 0xe6, 0xf8,
  0xe8, 0x14, 0x10, 0xe8, 0x17, 0x10, 0xdd, 0x10, 0x0c, 0x02, 0xe9, 0xec,
  0xe9, 0xef, 0xf9, 0x03, 0xef, 0x18, 0xf3, 0xf9, 0x25, 0xfe, 0xeb, 0xeb,
  0xe6, 0xfd, 0xf9, 0x23, 0xe1, 0x32, 0x33, 0x01, 0x3b, 0xbe, 0xf1, 0xff,
  0xeb, 0xea, 0x20, 0xfe, 0xdd, 0x19, 0x14, 0x11, 0x0f, 0x11, 0x08, 0x07,
  0x2c, 0xd8, 0x1c, 0x08, 0xcd, 0x09, 0x2d, 0xfd, 0x42, 0x29, 0x33, 0xc1,
  0xe6, 0x0d, 0x31, 0x0a, 0x08, 0xec, 0x3f, 0x16, 0xde, 0x09, 0x2c, 0x22,
  0x02, 0x2c, 0x36, 0xcc, 0x02, 0xf8, 0xf6, 0xed, 0x03, 0xfc, 0xfa, 0xf7,
  0xfb, 0x04, 0xf8, 0x01, 0xef, 0xfb, 0xf7, 0xfd, 0x16, 0xe6, 0xcc, 0xe7,
  0xc5, 0x11, 0xfb, 0xda, 0xf4, 0x22, 0x13, 0x1f, 0x0a, 0xfb, 0xfd, 0x03,
  0x19, 0x9a, 0xa9, 0x03, 0xa7, 0x50, 0xe3, 0x21, 0xf9, 0x23, 0xfb, 0xcd,
  0x55, 0xf5, 0xec, 0xf9, 0x14, 0xdf, 0xec, 0x04, 0xed, 0x0a, 0xea, 0xf0,
  0xe2, 0x22, 0x0e, 0x1e, 0x07, 0xf7, 0xec, 0x3f, 0xef, 0x1d, 0x11, 0xf1,
  0x0c, 0x01, 0x18, 0x3a, 0xe6, 0x18, 0x16, 0x23, 0x07, 0x0d, 0x0b, 0xf4,
  0xc7, 0x20, 0x4f, 0xef, 0x1b, 0xbd, 0x53, 0xdc, 0x17, 0x11, 0x07, 0x1e,
  0xda, 0x37, 0x0a, 0xf9, 0xd8, 0x2a, 0x18, 0xe1, 0x22, 0xc9, 0xed, 0x13,
  0xf1, 0xdc, 0x06, 0x08, 0xeb, 0x1f, 0xff, 0xf4, 0xe7, 0x01, 0x16, 0xf2,
  0x14, 0xf3, 0x21, 0xfa, 0x0a, 0x0b, 0x14, 0x22, 0xe4, 0x14, 0xfe, 0xfc,
  0x0e, 0xf6, 0x02, 0xfb, 0xfb, 0x07, 0xee, 0xf9, 0x02, 0x01, 0x0b, 0x0b,
  0x11, 0xf1, 0x00, 0x03, 0x29, 0xb9, 0xa0, 0x03, 0xa9, 0x51, 0xe6, 0xda,
  0x2a, 0x1f, 0x04, 0xc0, 0x40, 0xdd, 0xeb, 0xe7, 0x11, 0xe8, 0xca, 0xdf,
  0xd0, 0x47, 0xb5, 0xd8, 0x11, 0xee, 0xf7, 0xe1, 0xd3, 0xdf, 0xd1, 0x35,
  0x0a, 0x08, 0xef, 0xe1, 0xfd, 0x0b, 0xe3, 0x1d, 0x11, 0x00, 0x13, 0xbf,
  0x22, 0xde, 0xe7, 0x16, 0xfb, 0x19, 0xeb, 0xde, 0x1f, 0xf0, 0xcb, 0xd5,
  0x10, 0xec, 0xfd, 0x31, 0xcd, 0xfd, 0xd5, 0x33, 0xfd, 0x1c, 0x14, 0xf7,
  0x41, 0xe0, 0xe1, 0xe5, 0x2c, 0xf5, 0xea, 0xef, 0x18, 0x17, 0xde, 0xfc,
  0xba, 0x15, 0x26, 0xe2, 0x2a, 0xcb, 0x0f, 0xdf, 0x1c, 0xdf, 0xe3, 0xf9,
  0xd2, 0x26, 0xe0, 0x07, 0xde, 0x08, 0x0c, 0xec, 0x1d, 0xf8, 0xf6, 0x31,
  0x1a, 0xd7, 0xf2, 0xfe, 0x07, 0x13, 0xef, 0x16, 0xf2, 0xfc, 0xf4, 0xe7,
  0xfe, 0x09, 0xfa, 0xf6, 0xea, 0xf7, 0x02, 0xf9, 0xff, 0xfb, 0xe7, 0x0a,
  0x66, 0xae, 0x9e, 0x1d, 0xa8, 0x74, 0x98, 0x15, 0xd9, 0xe8, 0xe2, 0xe4,
  0x32, 0xac, 0x08, 0x16, 0x3b, 0xcc, 0xc9, 0x09, 0xbb, 0x3e, 0xf8, 0x17,
  0xe6, 0x20, 0xfc, 0x16, 0x1a, 0xc4, 0xe5, 0x35, 0x11, 0xff, 0xef, 0xff,
  0x05, 0x19, 0xc7, 0x0b, 0xfa, 0x03, 0xd9, 0x0e, 0xe8, 0x0b, 0xc7, 0x25,
  0xf6, 0xfb, 0xe0, 0xf7, 0x12, 0x08, 0x08, 0xfe, 0x36, 0x25, 0xbb, 0xd6,
  0x0f, 0x08, 0xb1, 0x14, 0xef, 0x32, 0x27, 0x07, 0x2e, 0xda, 0x1b, 0x04,
  0xe9, 0xf4, 0xe4, 0x03, 0xe3, 0x25, 0xde, 0x28, 0xe1, 0x1f, 0x3d, 0x0c,
  0x4e, 0xcf, 0x0f, 0x11, 0xda, 0x1d, 0x20, 0x1e, 0x0d, 0x41, 0x15, 0xea,
  0xf9, 0x07, 0x13, 0x01, 0x15, 0xf6, 0x1b, 0xd3, 0x20, 0x27, 0x22, 0x37,
  0xdd, 0x28, 0x10, 0xf7, 0xef, 0x0b, 0x06, 0x02, 0x08, 0xfd, 0x0b, 0xf4,
  0x10, 0xf3, 0xf4, 0xdf, 0x13, 0x08, 0xfd, 0x02, 0x14, 0x0f, 0xe0, 0xd8,
  0xfb, 0x03, 0xe4, 0x08, 0xf9, 0xf3, 0x04, 0x0a, 0xf9, 0xd6, 0xfa, 0x20,
  0x21, 0xe8, 0xa9, 0xfd, 0xd3, 0x37, 0xdd, 0xfe, 0xfd, 0xed, 0xfe, 0xe4,
  0x1e, 0xd7, 0xfe, 0x13, 0x14, 0x09, 0x16, 0x0d, 0xf2, 0xf9, 0x1b, 0xf5,
  0xf5, 0x14, 0x0b, 0x0c, 0x1a, 0x02, 0x14, 0xed, 0x23, 0xe5, 0x15, 0x23,
  0xf5, 0xf9, 0xfa, 0xdc, 0xf1, 0x0f, 0x07, 0xfc, 0x1f, 0x19, 0x1b, 0xe9,
  0xfe, 0xf0, 0x4d, 0x0f, 0x0e, 0xea, 0x2d, 0xee, 0x26, 0x0c, 0x02, 0x06,
  0xf8, 0x26, 0x15, 0xe4, 0xdd, 0x06, 0x21, 0xf9, 0x20, 0xf3, 0x02, 0xf6,
  0x1e, 0xf1, 0xf3, 0xfb, 0xd8, 0x1c, 0x05, 0xf0, 0xf2, 0x13, 0xf2, 0xf4,
  0xff, 0xf8, 0x04, 0x22, 0xed, 0xf2, 0xf3, 0xf0, 0x1d, 0xf6, 0xf0, 0x02,
  0xfd, 0x08, 0x0d, 0x03, 0x08, 0xee, 0x06, 0x08, 0x09, 0xfd, 0xfa, 0x13,
  0xed, 0x08, 0x13, 0xf7, 0x06, 0x04, 0xf8, 0xf1, 0xfa, 0xfc, 0xf9, 0x07,
  0x03, 0x08, 0x00, 0x01, 0xff, 0x00, 0xfb, 0x04, 0x02, 0x01, 0xff, 0x03,
  0x0a, 0xfa, 0xef, 0xf8, 0x15, 0xf8, 0xec, 0xfd, 0x03, 0x08, 0x06, 0x06,
  0x01, 0x0b, 0x12, 0xf9, 0x04, 0x03, 0x0d, 0x0c, 0xfe, 0xf2, 0xfe, 0xfb,
  0x03, 0xfd, 0xfc, 0xf7, 0x0f, 0xfc, 0x00, 0x01, 0xed, 0xfa, 0xff, 0xfb,
  0xfc, 0x03, 0x01, 0x0a, 0x03, 0xfa, 0x09, 0xfe, 0x13, 0xec, 0xf0, 0xfc,
  0xfb, 0x09, 0x05, 0x05, 0x00, 0x05, 0x07, 0x01, 0x0d, 0xf1, 0x0f, 0xf3,
  0x11, 0x04, 0x00, 0x14, 0x0a, 0xfd, 0x09, 0x06, 0xf5, 0x00, 0x0b, 0x0c,
  0x0b, 0x07, 0x00, 0x00, 0xf3, 0x0b, 0x01, 0x05, 0x0e, 0xfb, 0x06, 0xf7,
  0x00, 0x07, 0x11, 0x00, 0xf3, 0x0b, 0x07, 0x00, 0xf2, 0x04, 0xff, 0x03,
  0xfa, 0x01, 0x0c, 0xfa, 0xfc, 0x01, 0x03, 0xf4, 0xf8, 0xfd, 0xf2, 0xfd,
  0x05, 0x58, 0x25, 0xd3, 0x4d, 0xa8, 0x09, 0x36, 0xaf, 0x05, 0x34, 0x7f,
  0x11, 0xf9, 0x02, 0x2a, 0x07, 0x31, 0x0e, 0xcb, 0x1a, 0xc0, 0x00, 0xf1,
  0xde, 0x0f, 0x1d, 0x58, 0x06, 0x05, 0xf2, 0x30, 0x15, 0xf5, 0xe7, 0xd2,
  0x26, 0xf9, 0xcb, 0x20, 0x11, 0x22, 0x23, 0x21, 0x2d, 0x08, 0xf8, 0xe2,
  0x1c, 0xeb, 0xd2, 0xd8, 0xfe, 0xe4, 0xf6, 0xcc, 0x0f, 0x0e, 0xfc, 0xf5,
  0xfb, 0x0b, 0xd1, 0x1c, 0x19, 0xf6, 0x05, 0xff, 0x08, 0xf2, 0x00, 0xbb,
  0x32, 0x2f, 0x21, 0x04, 0x1f, 0x39, 0x03, 0xd3, 0xed, 0xc5, 0xeb, 0xfb,
  0xda, 0x1c, 0x0a, 0xf5, 0x1b, 0x2b, 0xfe, 0xc8, 0x12, 0x0f, 0xf5, 0xf3,
  0xff, 0xf6, 0xea, 0xd9, 0xf4, 0x0a, 0xd4, 0xfd, 0x10, 0xeb, 0xe5, 0x1a,
  0xdc, 0xf4, 0xc4, 0x2d, 0xf7, 0xfa, 0xf8, 0xdf, 0xf9, 0x01, 0xfd, 0xfc,
  0x10, 0xe2, 0xf1, 0xf1, 0xff, 0xed, 0xe0, 0x0d, 0xdd, 0x06, 0xf7, 0xec,
  0x29, 0x0c, 0xf6, 0xea, 0x1a, 0xf7, 0xce, 0xd7, 0xeb, 0x1b, 0xcf, 0x13,
  0xf5, 0xf8, 0xef, 0x0d, 0x12, 0x0c, 0xde, 0xf7, 0x18, 0xde, 0xdd, 0xfd,
  0x0a, 0x1a, 0xe9, 0x11, 0xee, 0xd1, 0x0e, 0x0f, 0x04, 0x0a, 0xf9, 0xf6,
  0x00, 0x12, 0xea, 0xf9, 0xec, 0x2c, 0xfd, 0x03, 0x09, 0xeb, 0xfa, 0x20,
  0xdf, 0x4c, 0x09, 0xda, 0x23, 0x0b, 0xe4, 0xcc, 0x37, 0x20, 0x19, 0xc5,
  0xf4, 0xe9, 0xdb, 0xf2, 0xc7, 0x24, 0x21, 0x24, 0xeb, 0x03, 0xf6, 0xe7,
  0x1d, 0x04, 0xf3, 0x14, 0x17, 0xf2, 0xb6, 0xeb, 0xce, 0x38, 0xcf, 0x0b,
  0xd6, 0xfc, 0xf6, 0x01, 0xfd, 0xbd, 0xdb, 0x53, 0x38, 0xea, 0xca, 0xf3,
  0xed, 0x1e, 0xc6, 0x38, 0xa8, 0xf2, 0x01, 0xf7, 0x0e, 0xc4, 0xd6, 0x53,
  0xf9, 0x08, 0xff, 0x05, 0x05, 0xff, 0x09, 0xf8, 0xfb, 0x07, 0x06, 0x10,
  0xf5, 0xf8, 0x02, 0x05, 0xe5, 0x29, 0x35, 0xf6, 0x2e, 0xd9, 0x10, 0xe9,
  0x1a, 0x0a, 0x07, 0x30, 0xd6, 0x3e, 0xf5, 0xd4, 0xdc, 0xfe, 0x25, 0x18,
  0xfd, 0xfa, 0x0d, 0xb5, 0x33, 0x13, 0xed, 0xc7, 0x05, 0x32, 0xfc, 0xc4,
  0x04, 0x07, 0x0e, 0x19, 0x0b, 0xde, 0xe7, 0x16, 0xd7, 0xed, 0x0e, 0xfa,
  0xeb, 0xef, 0x11, 0x19, 0x0e, 0x19, 0xfc, 0x03, 0x04, 0xf6, 0x0e, 0x02,
  0xeb, 0xef, 0x0f, 0x1c, 0x06, 0x02, 0x1a, 0xe6, 0x24, 0xce, 0xc8, 0x01,
  0xc0, 0x41, 0x09, 0xfb, 0xff, 0x08, 0xed, 0xef, 0x25, 0xe7, 0xee, 0xfd,
  0xf2, 0xf2, 0xe5, 0xfe, 0xd5, 0x22, 0xe8, 0x02, 0x24, 0xf3, 0xc9, 0xf8,
  0xb6, 0xde, 0xdb, 0x46, 0x23, 0xf5, 0xdc, 0xf0, 0xeb, 0x12, 0xc7, 0xde,
  0x1b, 0xee, 0xcf, 0xd7, 0x0e, 0xe4, 0xc3, 0x21, 0xfa, 0xf7, 0xff, 0x0e,
  0x07, 0xf1, 0xfd, 0x00, 0x05, 0xfb, 0x07, 0x08, 0x0c, 0x0f, 0x04, 0x02,
  0xec, 0x2f, 0x29, 0x0c, 0x2e, 0xf0, 0x06, 0x22, 0x0c, 0xef, 0xed, 0xe9,
  0x02, 0x02, 0x05, 0xf9, 0xe9, 0x66, 0x58, 0xfe, 0x4c, 0xab, 0x25, 0xe5,
  0x04, 0xd7, 0x0a, 0x1f, 0xab, 0x1a, 0x08, 0x08, 0xee, 0x14, 0x16, 0x0a,
  0x19, 0x02, 0x08, 0x17, 0x20, 0xe2, 0x00, 0xe2, 0xfd, 0x0f, 0x1b, 0xce,
  0x14, 0xde, 0xf4, 0x02, 0xef, 0x06, 0xf6, 0xc0, 0x1c, 0xe7, 0xe0, 0xed,
  0xe8, 0xeb, 0xe5, 0xfd, 0x36, 0xec, 0xb5, 0x11, 0xe5, 0x46, 0xac, 0x18,
  0xf0, 0xe5, 0x0c, 0xd9, 0x35, 0xc8, 0x08, 0x0f, 0x25, 0xeb, 0xe1, 0x1d,
  0xc8, 0x36, 0x1b, 0xeb, 0x06, 0x37, 0x05, 0xf9, 0x1a, 0xe1, 0xfd, 0x0b,
  0x28, 0xfc, 0xea, 0x0a, 0xfb, 0x14, 0xed, 0x05, 0xfd, 0xfd, 0xe7, 0xe9,
  0x21, 0xee, 0xf1, 0x04, 0xef, 0xfb, 0x0e, 0xfe, 0x11, 0xfe, 0x0d, 0xf9,
  0xf2, 0x0a, 0xf6, 0xf6, 0xfd, 0x10, 0x12, 0xfb, 0xcb, 0x4c, 0x52, 0x06,
  0x5f, 0xb5, 0x26, 0x24, 0xdd, 0xe4, 0xfd, 0x3f, 0xbb, 0x27, 0x07, 0x11,
  0xeb, 0x1c, 0x43, 0x0d, 0x2e, 0xb8, 0x47, 0x2f, 0xfa, 0x16, 0x03, 0x1c,
  0x38, 0x26, 0x31, 0xcf, 0xf5, 0xfb, 0x1d, 0x21, 0x12, 0xf2, 0x14, 0xf4,
  0xf3, 0xec, 0xf0, 0x48, 0xdd, 0x18, 0x13, 0xe8, 0xfc, 0xf8, 0x07, 0x28,
  0xe3, 0x23, 0x34, 0x1a, 0xfc, 0x0e, 0x08, 0xcb, 0x29, 0x16, 0x39, 0xce,
  0x0e, 0xf2, 0xea, 0x0e, 0xba, 0x15, 0x25, 0x1d, 0xce, 0x0d, 0x21, 0x19,
  0xee, 0xf3, 0x1f, 0x09, 0x3c, 0xde, 0xe1, 0x22, 0xc0, 0x2d, 0xef, 0x21,
  0xe4, 0x1e, 0x0f, 0xf6, 0x2a, 0xd3, 0x14, 0xfd, 0x12, 0xea, 0xfb, 0x04,
  0xe7, 0x0d, 0xff, 0xc8, 0xea, 0x2b, 0x0a, 0x01, 0x03, 0xf7, 0x1e, 0xf5,
  0x07, 0xf9, 0x08, 0x0e, 0x06, 0xf9, 0x00, 0x06, 0x04, 0x01, 0x06, 0x07,
  0x08, 0xff, 0x15, 0xf1, 0x9a, 0x48, 0x66, 0xe1, 0x57, 0x9d, 0x70, 0xe2,
  0x14, 0x04, 0x1d, 0x26, 0xca, 0x49, 0xfd, 0xeb, 0xcc, 0x39, 0x46, 0xf9,
  0x4c, 0xc0, 0x04, 0xed, 0x11, 0xe0, 0x11, 0xfa, 0xda, 0x41, 0x0c, 0xc8,
  0xec, 0x0a, 0x14, 0x0a, 0xe7, 0xf2, 0x27, 0x02, 0x06, 0xfd, 0x2f, 0x03,
  0x27, 0xf8, 0x35, 0xed, 0xfb, 0x04, 0x14, 0x0e, 0xe2, 0xeb, 0xfc, 0xfa,
  0xc8, 0xef, 0x46, 0x27, 0xed, 0xf9, 0x3d, 0xed, 0x11, 0xc2, 0xe5, 0xf9,
  0xd0, 0x37, 0xee, 0x0a, 0x24, 0x0b, 0x13, 0xed, 0x26, 0xd1, 0x25, 0xd9,
  0x14, 0xeb, 0xd1, 0x01, 0xbb, 0x36, 0xf3, 0xed, 0x24, 0xed, 0xe8, 0xe2,
  0xf2, 0xbb, 0xde, 0x14, 0x12, 0xfc, 0xe8, 0x08, 0xec, 0x10, 0xf0, 0x26,
  0xe8, 0xe4, 0xe4, 0xca, 0x1d, 0xd9, 0xf8, 0x05, 0xfe, 0xff, 0xfd, 0x02,
  0x02, 0x0a, 0xf9, 0x11, 0xed, 0x0c, 0x02, 0x18, 0xfa, 0x03, 0x0f, 0xfc,
  0xf2, 0xf2, 0x30, 0x1d, 0xf4, 0x03, 0x23, 0xfc, 0xfb, 0x0a, 0xef, 0xee,
  0x19, 0x27, 0x03, 0xeb, 0xde, 0x10, 0x4e, 0x03, 0x23, 0xdd, 0x35, 0x02,
  0x0c, 0x04, 0x0e, 0x28, 0xe7, 0x24, 0x12, 0x00, 0xe1, 0x03, 0xf0, 0xf5,
  0x17, 0x09, 0xe9, 0x03, 0x11, 0xf6, 0xf3, 0xfa, 0xec, 0xff, 0xf0, 0x15,
  0xe7, 0x14, 0xf7, 0xdd, 0x0a, 0xf7, 0x02, 0x25, 0x12, 0xdf, 0x05, 0xf3,
  0xe1, 0xe6, 0xf0, 0x1b, 0x03, 0x14, 0xb4, 0xf0, 0xf6, 0x14, 0xd6, 0x21,
  0xdd, 0xe9, 0xf7, 0xea, 0x0b, 0xd4, 0xf2, 0x1d, 0x22, 0xe4, 0xea, 0x14,
  0xe6, 0x06, 0xf8, 0x02, 0xf0, 0x22, 0x0b, 0x0c, 0x2a, 0xe3, 0xff, 0x09,
  0x0c, 0xf4, 0x0c, 0x01, 0xfb, 0x09, 0xf6, 0xdf, 0x0e, 0x0f, 0x01, 0x05,
  0xf0, 0x0b, 0x0c, 0x06, 0x00, 0x01, 0xf2, 0xf9, 0xf9, 0x11, 0xf5, 0x03,
  0x0d, 0xf4, 0x01, 0xf3, 0x09, 0xf9, 0x00, 0xfe, 0x0c, 0x09, 0x0d, 0x0e,
  0xfc, 0xfa, 0x01, 0xfe, 0x01, 0xfb, 0x06, 0x0a, 0x0f, 0x01, 0x03, 0xef,
  0xfe, 0xf0, 0x06, 0x05, 0x03, 0xf5, 0x0f, 0x09, 0xf6, 0x00, 0x0b, 0x05,
  0x06, 0x03, 0xfc, 0x0b, 0x14, 0xfd, 0xeb, 0x0c, 0xff, 0x04, 0xf1, 0x00,
  0xfc, 0x12, 0x0c, 0x0a, 0x09, 0x00, 0x05, 0x0b, 0xf2, 0xfe, 0x03, 0x01,
  0x18, 0x04, 0x08, 0xfe, 0xf2, 0xfb, 0x00, 0xfb, 0x01, 0x0b, 0xf5, 0xf5,
  0xfe, 0x12, 0x0d, 0xf5, 0x03, 0xf8, 0x01, 0xfc, 0x0e, 0x04, 0x02, 0x09,
  0xf5, 0x0a, 0x06, 0x09, 0x03, 0x01, 0xfa, 0xf0, 0xff, 0xf7, 0xfb, 0x0b,
  0x16, 0xfb, 0xec, 0xf2, 0xf6, 0xff, 0x04, 0xf8, 0x09, 0x05, 0xf3, 0xf9,
  0xf7, 0x0d, 0x08, 0xf9, 0x07, 0xfc, 0xfd, 0xfa, 0x00, 0xeb, 0x0a, 0x01,
  0x02, 0x07, 0xf8, 0x02, 0xf8, 0x0d, 0x01, 0x03, 0xf0, 0xfc, 0x03, 0x00,
  0xfe, 0xf3, 0xfa, 0xf6, 0x42, 0xff, 0xff, 0xff, 0x04, 0x00, 0x00, 0x00,
  0x08, 0x00, 0x00, 0x00, 0x31, 0x01, 0x00, 0x00, 0xcf, 0xfe, 0xff, 0xff,
  0x56, 0xff, 0xff, 0xff, 0x04, 0x00, 0x00, 0x00, 0x08, 0x00, 0x00, 0x00,
  0xff, 0xff, 0xff, 0xff, 0x00, 0x04, 0x00, 0x00, 0x68, 0xef, 0xff, 0xff,
  0x6c, 0xef, 0xff, 0xff, 0x0f, 0x00, 0x00, 0x00, 0x4d, 0x4c, 0x49, 0x52,
  0x20, 0x43, 0x6f, 0x6e, 0x76, 0x65, 0x72, 0x74, 0x65, 0x64, 0x2e, 0x00,
  0x01, 0x00, 0x00, 0x00, 0x14, 0x00, 0x00, 0x00, 0x00, 0x00, 0x0e, 0x00,
  0x18, 0x00, 0x14, 0x00, 0x10, 0x00, 0x0c, 0x00, 0x08, 0x00, 0x04, 0x00,
  0x0e, 0x00, 0x00, 0x00, 0x14, 0x00, 0x00, 0x00, 0x1c, 0x00, 0x00, 0x00,
  0x34, 0x02, 0x00, 0x00, 0x38, 0x02, 0x00, 0x00, 0x3c, 0x02, 0x00, 0x00,
  0x04, 0x00, 0x00, 0x00, 0x6d, 0x61, 0x69, 0x6e, 0x00, 0x00, 0x00, 0x00,
  0x08, 0x00, 0x00, 0x00, 0xd4, 0x01, 0x00, 0x00, 0x74, 0x01, 0x00, 0x00,
  0x28, 0x01, 0x00, 0x00, 0xe8, 0x00, 0x00, 0x00, 0xac, 0x00, 0x00, 0x00,
  0x84, 0x00, 0x00, 0x00, 0x40, 0x00, 0x00, 0x00, 0x04, 0x00, 0x00, 0x00,
  0xb6, 0xfe, 0xff, 0xff, 0x1c, 0x00, 0x00, 0x00, 0x00, 0x00, 0x00, 0x09,
  0x1c, 0x00, 0x00, 0x00, 0x20, 0x00, 0x00, 0x00, 0x04, 0x00, 0x00, 0x00,
  0x00, 0x00, 0x06, 0x00, 0x08, 0x00, 0x04, 0x00, 0x06, 0x00, 0x00, 0x00,
  0x00, 0x00, 0x80, 0x3f, 0x01, 0x00, 0x00, 0x00, 0x11, 0x00, 0x00, 0x00,
  0x01, 0x00, 0x00, 0x00, 0x10, 0x00, 0x00, 0x00, 0xee, 0xfe, 0xff, 0xff,
  0x14, 0x00, 0x00, 0x00, 0x00, 0x00, 0x00, 0x08, 0x10, 0x00, 0x00, 0x00,
  0x14, 0x00, 0x00, 0x00, 0x03, 0x00, 0x00, 0x00, 0x34, 0xf0, 0xff, 0xff,
  0x01, 0x00, 0x00, 0x00, 0x10, 0x00, 0x00, 0x00, 0x03, 0x00, 0x00, 0x00,
  0x0f, 0x00, 0x00, 0x00, 0x03, 0x00, 0x00, 0x00, 0x02, 0x00, 0x00, 0x00,
  0x00, 0x00, 0x0a, 0x00, 0x10, 0x00, 0x0c, 0x00, 0x08, 0x00, 0x04, 0x00,
  0x0a, 0x00, 0x00, 0x00, 0x0c, 0x00, 0x00, 0x00, 0x10, 0x00, 0x00, 0x00,
  0x02, 0x00, 0x00, 0x00, 0x01, 0x00, 0x00, 0x00, 0x0f, 0x00, 0x00, 0x00,
  0x02, 0x00, 0x00, 0x00, 0x0e, 0x00, 0x00, 0x00, 0x01, 0x00, 0x00, 0x00,
  0xf6, 0xfe, 0xff, 0xff, 0x10, 0x00, 0x00, 0x00, 0x00, 0x00, 0x00, 0x01,
  0x14, 0x00, 0x00, 0x00, 0x18, 0x00, 0x00, 0x00, 0xe6, 0xfe, 0xff, 0xff,
  0x02, 0x00, 0x00, 0x00, 0x02, 0x00, 0x00, 0x00, 0x01, 0x00, 0x00, 0x00,
  0x0e, 0x00, 0x00, 0x00, 0x03, 0x00, 0x00, 0x00, 0x0d, 0x00, 0x00, 0x00,
  0x05, 0x00, 0x00, 0x00, 0x04, 0x00, 0x00, 0x00, 0x8a, 0xff, 0xff, 0xff,
  0x14, 0x00, 0x00, 0x00, 0x00, 0x00, 0x00, 0x05, 0x20, 0x00, 0x00, 0x00,
  0x24, 0x00, 0x00, 0x00, 0x01, 0x00, 0x00, 0x00, 0x7a, 0xff, 0xff, 0xff,
  0x02, 0x00, 0x00, 0x00, 0x02, 0x00, 0x00, 0x00, 0x01, 0x00, 0x00, 0x00,
  0x01, 0x00, 0x00, 0x00, 0x01, 0x00, 0x00, 0x00, 0x0d, 0x00, 0x00, 0x00,
  0x01, 0x00, 0x00, 0x00, 0x0c, 0x00, 0x00, 0x00, 0x6a, 0xff, 0xff, 0xff,
  0x10, 0x00, 0x00, 0x00, 0x00, 0x00, 0x00, 0x01, 0x14, 0x00, 0x00, 0x00,
  0x18, 0x00, 0x00, 0x00, 0x5a, 0xff, 0xff, 0xff, 0x02, 0x00, 0x00, 0x00,
  0x02, 0x00, 0x00, 0x00, 0x01, 0x00, 0x00, 0x00, 0x0c, 0x00, 0x00, 0x00,
  0x03, 0x00, 0x00, 0x00, 0x0b, 0x00, 0x00, 0x00, 0x07, 0x00, 0x00, 0x00,
  0x06, 0x00, 0x00, 0x00, 0x00, 0x00, 0x0e, 0x00, 0x1a, 0x00, 0x14, 0x00,
  0x10, 0x00, 0x0c, 0x00, 0x0b, 0x00, 0x04, 0x00, 0x0e, 0x00, 0x00, 0x00,
  0x24, 0x00, 0x00, 0x00, 0x00, 0x00, 0x00, 0x05, 0x30, 0x00, 0x00, 0x00,
  0x34, 0x00, 0x00, 0x00, 0x01, 0x00, 0x00, 0x00, 0x00, 0x00, 0x0e, 0x00,
  0x14, 0x00, 0x00, 0x00, 0x10, 0x00, 0x0c, 0x00, 0x08, 0x00, 0x04, 0x00,
  0x0e, 0x00, 0x00, 0x00, 0x02, 0x00, 0x00, 0x00, 0x02, 0x00, 0x00, 0x00,
  0x01, 0x00, 0x00, 0x00, 0x01, 0x00, 0x00, 0x00, 0x01, 0x00, 0x00, 0x00,
  0x0b, 0x00, 0x00, 0x00, 0x01, 0x00, 0x00, 0x00, 0x0a, 0x00, 0x00, 0x00,
  0x00, 0x00, 0x0e, 0x00, 0x16, 0x00, 0x00, 0x00, 0x10, 0x00, 0x0c, 0x00,
  0x0b, 0x00, 0x04, 0x00, 0x0e, 0x00, 0x00, 0x00, 0x1c, 0x00, 0x00, 0x00,
  0x00, 0x00, 0x00, 0x01, 0x20, 0x00, 0x00, 0x00, 0x24, 0x00, 0x00, 0x00,
  0x00, 0x00, 0x0a, 0x00, 0x0c, 0x00, 0x00, 0x00, 0x08, 0x00, 0x04, 0x00,
  0x0a, 0x00, 0x00, 0x00, 0x01, 0x00, 0x00, 0x00, 0x01, 0x00, 0x00, 0x00,
  0x01, 0x00, 0x00, 0x00, 0x0a, 0x00, 0x00, 0x00, 0x03, 0x00, 0x00, 0x00,
  0x00, 0x00, 0x00, 0x00, 0x09, 0x00, 0x00, 0x00, 0x08, 0x00, 0x00, 0x00,
  0x01, 0x00, 0x00, 0x00, 0x11, 0x00, 0x00, 0x00, 0x01, 0x00, 0x00, 0x00,
  0x00, 0x00, 0x00, 0x00, 0x12, 0x00, 0x00, 0x00, 0x5c, 0x0e, 0x00, 0x00,
  0xf0, 0x0d, 0x00, 0x00, 0x58, 0x0d, 0x00, 0x00, 0xe4, 0x0c, 0x00, 0x00,
  0xb0, 0x0b, 0x00, 0x00, 0x84, 0x0a, 0x00, 0x00, 0x50, 0x09, 0x00, 0x00,
  0x24, 0x08, 0x00, 0x00, 0xf0, 0x06, 0x00, 0x00, 0xc4, 0x05, 0x00, 0x00,
  0xc8, 0x04, 0x00, 0x00, 0x2c, 0x04, 0x00, 0x00, 0x28, 0x03, 0x00, 0x00,
  0x8c, 0x02, 0x00, 0x00, 0xa8, 0x01, 0x00, 0x00, 0x24, 0x01, 0x00, 0x00,
  0x80, 0x00, 0x00, 0x00, 0x04, 0x00, 0x00, 0x00, 0x02, 0xf2, 0xff, 0xff,
  0x00, 0x00, 0x00, 0x01, 0x18, 0x00, 0x00, 0x00, 0x20, 0x00, 0x00, 0x00,
  0x3c, 0x00, 0x00, 0x00, 0x12, 0x00, 0x00, 0x00, 0x00, 0x00, 0x00, 0x09,
  0x50, 0x00, 0x00, 0x00, 0x02, 0x00, 0x00, 0x00, 0xff, 0xff, 0xff, 0xff,
  0x02, 0x00, 0x00, 0x00, 0xe4, 0xf1, 0xff, 0xff, 0x08, 0x00, 0x00, 0x00,
  0x10, 0x00, 0x00, 0x00, 0x01, 0x00, 0x00, 0x00, 0x80, 0xff, 0xff, 0xff,
  0xff, 0xff, 0xff, 0xff, 0x01, 0x00, 0x00, 0x00, 0x00, 0x00, 0x80, 0x3b,
  0x19, 0x00, 0x00, 0x00, 0x53, 0x74, 0x61, 0x74, 0x65, 0x66, 0x75, 0x6c,
  0x50, 0x61, 0x72, 0x74, 0x69, 0x74, 0x69, 0x6f, 0x6e, 0x65, 0x64, 0x43,
  0x61, 0x6c, 0x6c, 0x3a, 0x30, 0x00, 0x00, 0x00, 0x02, 0x00, 0x00, 0x00,
  0x01, 0x00, 0x00, 0x00, 0x02, 0x00, 0x00, 0x00, 0x7a, 0xf2, 0xff, 0xff,
  0x00, 0x00, 0x00, 0x01, 0x18, 0x00, 0x00, 0x00, 0x20, 0x00, 0x00, 0x00,
  0x40, 0x00, 0x00, 0x00, 0x11, 0x00, 0x00, 0x00, 0x00, 0x00, 0x00, 0x09,
  0x78, 0x00, 0x00, 0x00, 0x02, 0x00, 0x00, 0x00, 0xff, 0xff, 0xff, 0xff,
  0x02, 0x00, 0x00, 0x00, 0x5c, 0xf2, 0xff, 0xff, 0x08, 0x00, 0x00, 0x00,
  0x14, 0x00, 0x00, 0x00, 0x01, 0x00, 0x00, 0x00, 0xf2, 0xff, 0xff, 0xff,
  0xff, 0xff, 0xff, 0xff, 0x00, 0x00, 0x00, 0x00, 0x01, 0x00, 0x00, 0x00,
  0xcf, 0x66, 0x49, 0x3d, 0x3e, 0x00, 0x00, 0x00, 0x64, 0x69, 0x73, 0x74,
  0x69, 0x6c, 0x6c, 0x65, 0x64, 0x5f, 0x6d, 0x6f, 0x64, 0x65, 0x6c, 0x2f,
  0x64, 0x65, 0x6e, 0x73, 0x65, 0x5f, 0x32, 0x2f, 0x4d, 0x61, 0x74, 0x4d,
  0x75, 0x6c, 0x3b, 0x64, 0x69, 0x73, 0x74, 0x69, 0x6c, 0x6c, 0x65, 0x64,
  0x5f, 0x6d, 0x6f, 0x64, 0x65, 0x6c, 0x2f, 0x64, 0x65, 0x6e, 0x73, 0x65,
  0x5f, 0x32, 0x2f, 0x42, 0x69, 0x61, 0x73, 0x41, 0x64, 0x64, 0x00, 0x00,
  0x02, 0x00, 0x00, 0x00, 0x01, 0x00, 0x00, 0x00, 0x02, 0x00, 0x00, 0x00,
  0x1a, 0xf3, 0xff, 0xff, 0x00, 0x00, 0x00, 0x01, 0x18, 0x00, 0x00, 0x00,
  0x20, 0x00, 0x00, 0x00, 0x40, 0x00, 0x00, 0x00, 0x10, 0x00, 0x00, 0x00,
  0x00, 0x00, 0x00, 0x09, 0x58, 0x00, 0x00, 0x00, 0x02, 0x00, 0x00, 0x00,
  0xff, 0xff, 0xff, 0xff, 0x00, 0x04, 0x00, 0x00, 0xfc, 0xf2, 0xff, 0xff,
  0x08, 0x00, 0x00, 0x00, 0x14, 0x00, 0x00, 0x00, 0x01, 0x00, 0x00, 0x00,
  0xf6, 0xff, 0xff, 0xff, 0xff, 0xff, 0xff, 0xff, 0x00, 0x00, 0x00, 0x00,
  0x01, 0x00, 0x00, 0x00, 0x9f, 0x84, 0x90, 0x3c, 0x1f, 0x00, 0x00, 0x00,
  0x64, 0x69, 0x73, 0x74, 0x69, 0x6c, 0x6c, 0x65, 0x64, 0x5f, 0x6d, 0x6f,
  0x64, 0x65, 0x6c, 0x2f, 0x66, 0x6c, 0x61, 0x74, 0x74, 0x65, 0x6e, 0x2f,
  0x52, 0x65, 0x73, 0x68, 0x61, 0x70, 0x65, 0x00, 0x02, 0x00, 0x00, 0x00,
  0x01, 0x00, 0x00, 0x00, 0x00, 0x04, 0x00, 0x00, 0x9a, 0xf3, 0xff, 0xff,
  0x00, 0x00, 0x00, 0x01, 0x18, 0x00, 0x00, 0x00, 0x28, 0x00, 0x00, 0x00,
  0x44, 0x00, 0x00, 0x00, 0x0f, 0x00, 0x00, 0x00, 0x00, 0x00, 0x00, 0x09,
  0xb0, 0x00, 0x00, 0x00, 0x04, 0x00, 0x00, 0x00, 0xff, 0xff, 0xff, 0xff,
  0x08, 0x00, 0x00, 0x00, 0x08, 0x00, 0x00, 0x00, 0x10, 0x00, 0x00, 0x00,
  0x84, 0xf3, 0xff, 0xff, 0x08, 0x00, 0x00, 0x00, 0x10, 0x00, 0x00, 0x00,
  0x01, 0x00, 0x00, 0x00, 0xf6, 0xff, 0xff, 0xff, 0xff, 0xff, 0xff, 0xff,
  0x01, 0x00, 0x00, 0x00, 0x9f, 0x84, 0x90, 0x3c, 0x70, 0x00, 0x00, 0x00,
  0x64, 0x69, 0x73, 0x74, 0x69, 0x6c, 0x6c, 0x65, 0x64, 0x5f, 0x6d, 0x6f,
  0x64, 0x65, 0x6c, 0x2f, 0x63, 0x6f, 0x6e, 0x76, 0x32, 0x64, 0x5f, 0x32,
  0x2f, 0x42, 0x69, 0x61, 0x73, 0x41, 0x64, 0x64, 0x3b, 0x64, 0x69, 0x73,
  0x74, 0x69, 0x6c, 0x6c, 0x65, 0x64, 0x5f, 0x6d, 0x6f, 0x64, 0x65, 0x6c,
  0x2f, 0x63, 0x6f, 0x6e, 0x76, 0x32, 0x64, 0x5f, 0x32, 0x2f, 0x43, 0x6f,
  0x6e, 0x76, 0x32, 0x44, 0x3b, 0x64, 0x69, 0x73, 0x74, 0x69, 0x6c, 0x6c,
  0x65, 0x64, 0x5f, 0x6d, 0x6f, 0x64, 0x65, 0x6c, 0x2f, 0x63, 0x6f, 0x6e,
  0x76, 0x32, 0x64, 0x5f, 0x32, 0x2f, 0x42, 0x69, 0x61, 0x73, 0x41, 0x64,
  0x64, 0x2f, 0x52, 0x65, 0x61, 0x64, 0x56, 0x61, 0x72, 0x69, 0x61, 0x62,
  0x6c, 0x65, 0x4f, 0x70, 0x00, 0x00, 0x00, 0x00, 0x04, 0x00, 0x00, 0x00,
  0x01, 0x00, 0x00, 0x00, 0x08, 0x00, 0x00, 0x00, 0x08, 0x00, 0x00, 0x00,
  0x10, 0x00, 0x00, 0x00, 0x7a, 0xf4, 0xff, 0xff, 0x00, 0x00, 0x00, 0x01,
  0x18, 0x00, 0x00, 0x00, 0x28, 0x00, 0x00, 0x00, 0x48, 0x00, 0x00, 0x00,
  0x0e, 0x00, 0x00, 0x00, 0x00, 0x00, 0x00, 0x09, 0x68, 0x00, 0x00, 0x00,
  0x04, 0x00, 0x00, 0x00, 0xff, 0xff, 0xff, 0xff, 0x10, 0x00, 0x00, 0x00,
  0x10, 0x00, 0x00, 0x00, 0x10, 0x00, 0x00, 0x00, 0x64, 0xf4, 0xff, 0xff,
  0x08, 0x00, 0x00, 0x00, 0x14, 0x00, 0x00, 0x00, 0x01, 0x00, 0x00, 0x00,
  0x4c, 0x00, 0x00, 0x00, 0x00, 0x00, 0x00, 0x00, 0x00, 0x00, 0x00, 0x00,
  0x01, 0x00, 0x00, 0x00, 0x38, 0x61, 0x58, 0x3c, 0x27, 0x00, 0x00, 0x00,
  0x64, 0x69, 0x73, 0x74, 0x69, 0x6c, 0x6c, 0x65, 0x64, 0x5f, 0x6d, 0x6f,
  0x64, 0x65, 0x6c, 0x2f, 0x6d, 0x61, 0x78, 0x5f, 0x70, 0x6f, 0x6f, 0x6c,
  0x69, 0x6e, 0x67, 0x32, 0x64, 0x5f, 0x31, 0x2f, 0x4d, 0x61, 0x78, 0x50,
  0x6f, 0x6f, 0x6c, 0x00, 0x04, 0x00, 0x00, 0x00, 0x01, 0x00, 0x00, 0x00,
  0x10, 0x00, 0x00, 0x00, 0x10, 0x00, 0x00, 0x00, 0x10, 0x00, 0x00, 0x00,
  0x12, 0xf5, 0xff, 0xff, 0x00, 0x00, 0x00, 0x01, 0x18, 0x00, 0x00, 0x00,
  0x28, 0x00, 0x00, 0x00, 0x44, 0x00, 0x00, 0x00, 0x0d, 0x00, 0x00, 0x00,
  0x00, 0x00, 0x00, 0x09, 0xd0, 0x00, 0x00, 0x00, 0x04, 0x00, 0x00, 0x00,
  0xff, 0xff, 0xff, 0xff, 0x10, 0x00, 0x00, 0x00, 0x10, 0x00, 0x00, 0x00,
  0x10, 0x00, 0x00, 0x00, 0xfc, 0xf4, 0xff, 0xff, 0x08, 0x00, 0x00, 0x00,
  0x10, 0x00, 0x00, 0x00, 0x01, 0x00, 0x00, 0x00, 0x4c, 0x00, 0x00, 0x00,
  0x00, 0x00, 0x00, 0x00, 0x01, 0x00, 0x00, 0x00, 0x38, 0x61, 0x58, 0x3c,
  0x90, 0x00, 0x00, 0x00, 0x64, 0x69, 0x73, 0x74, 0x69, 0x6c, 0x6c, 0x65,
  0x64, 0x5f, 0x6d, 0x6f, 0x64, 0x65, 0x6c, 0x2f, 0x63, 0x6f, 0x6e, 0x76,
  0x32, 0x64, 0x5f, 0x31, 0x2f, 0x42, 0x69, 0x61, 0x73, 0x41, 0x64, 0x64,
  0x3b, 0x64, 0x69, 0x73, 0x74, 0x69, 0x6c, 0x6c, 0x65, 0x64, 0x5f, 0x6d,
  0x6f, 0x64, 0x65, 0x6c, 0x2f, 0x63, 0x6f, 0x6e, 0x76, 0x32, 0x64, 0x5f,
  0x32, 0x2f, 0x43, 0x6f, 0x6e, 0x76, 0x32, 0x44, 0x3b, 0x64, 0x69, 0x73,
  0x74, 0x69, 0x6c, 0x6c, 0x65, 0x64, 0x5f, 0x6d, 0x6f, 0x64, 0x65, 0x6c,
  0x2f, 0x63, 0x6f, 0x6e, 0x76, 0x32, 0x64, 0x5f, 0x31, 0x2f, 0x43, 0x6f,
  0x6e, 0x76, 0x32, 0x44, 0x3b, 0x64, 0x69, 0x73, 0x74, 0x69, 0x6c, 0x6c,
  0x65, 0x64, 0x5f, 0x6d, 0x6f, 0x64, 0x65, 0x6c, 0x2f, 0x63, 0x6f, 0x6e,
  0x76, 0x32, 0x64, 0x5f, 0x31, 0x2f, 0x42, 0x69, 0x61, 0x73, 0x41, 0x64,
  0x64, 0x2f, 0x52, 0x65, 0x61, 0x64, 0x56, 0x61, 0x72, 0x69, 0x61, 0x62,
  0x6c, 0x65, 0x4f, 0x70, 0x00, 0x00, 0x00, 0x00, 0x04, 0x00, 0x00, 0x00,
  0x01, 0x00, 0x00, 0x00, 0x10, 0x00, 0x00, 0x00, 0x10, 0x00, 0x00, 0x00,
  0x10, 0x00, 0x00, 0x00, 0x12, 0xf6, 0xff, 0xff, 0x00, 0x00, 0x00, 0x01,
  0x18, 0x00, 0x00, 0x00, 0x28, 0x00, 0x00, 0x00, 0x48, 0x00, 0x00, 0x00,
  0x0c, 0x00, 0x00, 0x00, 0x00, 0x00, 0x00, 0x09, 0x68, 0x00, 0x00, 0x00,
  0x04, 0x00, 0x00, 0x00, 0xff, 0xff, 0xff, 0xff, 0x20, 0x00, 0x00, 0x00,
  0x20, 0x00, 0x00, 0x00, 0x10, 0x00, 0x00, 0x00, 0xfc, 0xf5, 0xff, 0xff,
  0x08, 0x00, 0x00, 0x00, 0x14, 0x00, 0x00, 0x00, 0x01, 0x00, 0x00, 0x00,
  0x1c, 0x00, 0x00, 0x00, 0x00, 0x00, 0x00, 0x00, 0x00, 0x00, 0x00, 0x00,
  0x01, 0x00, 0x00, 0x00, 0xf8, 0x94, 0xd4, 0x3b, 0x25, 0x00, 0x00, 0x00,
  0x64, 0x69, 0x73, 0x74, 0x69, 0x6c, 0x6c, 0x65, 0x64, 0x5f, 0x6d, 0x6f,
  0x64, 0x65, 0x6c, 0x2f, 0x6d, 0x61, 0x78, 0x5f, 0x70, 0x6f, 0x6f, 0x6c,
  0x69, 0x6e, 0x67, 0x32, 0x64, 0x2f, 0x4d, 0x61, 0x78, 0x50, 0x6f, 0x6f,
  0x6c, 0x00, 0x00, 0x00, 0x04, 0x00, 0x00, 0x00, 0x01, 0x00, 0x00, 0x00,
  0x20, 0x00, 0x00, 0x00, 0x20, 0x00, 0x00, 0x00, 0x10, 0x00, 0x00, 0x00,
  0xaa, 0xf6, 0xff, 0xff, 0x00, 0x00, 0x00, 0x01, 0x18, 0x00, 0x00, 0x00,
  0x28, 0x00, 0x00, 0x00, 0x44, 0x00, 0x00, 0x00, 0x0b, 0x00, 0x00, 0x00,
  0x00, 0x00, 0x00, 0x09, 0xc8, 0x00, 0x00, 0x00, 0x04, 0x00, 0x00, 0x00,
  0xff, 0xff, 0xff, 0xff, 0x20, 0x00, 0x00, 0x00, 0x20, 0x00, 0x00, 0x00,
  0x10, 0x00, 0x00, 0x00, 0x94, 0xf6, 0xff, 0xff, 0x08, 0x00, 0x00, 0x00,
  0x10, 0x00, 0x00, 0x00, 0x01, 0x00, 0x00, 0x00, 0x1c, 0x00, 0x00, 0x00,
  0x00, 0x00, 0x00, 0x00, 0x01, 0x00, 0x00, 0x00, 0xf8, 0x94, 0xd4, 0x3b,
  0x8a, 0x00, 0x00, 0x00, 0x64, 0x69, 0x73, 0x74, 0x69, 0x6c, 0x6c, 0x65,
  0x64, 0x5f, 0x6d, 0x6f, 0x64, 0x65, 0x6c, 0x2f, 0x63, 0x6f, 0x6e, 0x76,
  0x32, 0x64, 0x2f, 0x42, 0x69, 0x61, 0x73, 0x41, 0x64, 0x64, 0x3b, 0x64,
  0x69, 0x73, 0x74, 0x69, 0x6c, 0x6c, 0x65, 0x64, 0x5f, 0x6d, 0x6f, 0x64,
  0x65, 0x6c, 0x2f, 0x63, 0x6f, 0x6e, 0x76, 0x32, 0x64, 0x5f, 0x32, 0x2f,
  0x43, 0x6f, 0x6e, 0x76, 0x32, 0x44, 0x3b, 0x64, 0x69, 0x73, 0x74, 0x69,
  0x6c, 0x6c, 0x65, 0x64, 0x5f, 0x6d, 0x6f, 0x64, 0x65, 0x6c, 0x2f, 0x63,
  0x6f, 0x6e, 0x76, 0x32, 0x64, 0x2f, 0x43, 0x6f, 0x6e, 0x76, 0x32, 0x44,
  0x3b, 0x64, 0x69, 0x73, 0x74, 0x69, 0x6c, 0x6c, 0x65, 0x64, 0x5f, 0x6d,
  0x6f, 0x64, 0x65, 0x6c, 0x2f, 0x63, 0x6f, 0x6e, 0x76, 0x32, 0x64, 0x2f,
  0x42, 0x69, 0x61, 0x73, 0x41, 0x64, 0x64, 0x2f, 0x52, 0x65, 0x61, 0x64,
  0x56, 0x61, 0x72, 0x69, 0x61, 0x62, 0x6c, 0x65, 0x4f, 0x70, 0x00, 0x00,
  0x04, 0x00, 0x00, 0x00, 0x01, 0x00, 0x00, 0x00, 0x20, 0x00, 0x00, 0x00,
  0x20, 0x00, 0x00, 0x00, 0x10, 0x00, 0x00, 0x00, 0x0a, 0xf8, 0xff, 0xff,
  0x00, 0x00, 0x00, 0x01, 0x14, 0x00, 0x00, 0x00, 0xe4, 0x00, 0x00, 0x00,
  0x0a, 0x00, 0x00, 0x00, 0x00, 0x00, 0x00, 0x09, 0xfc, 0x00, 0x00, 0x00,
  0x74, 0xf7, 0xff, 0xff, 0x08, 0x00, 0x00, 0x00, 0x88, 0x00, 0x00, 0x00,
  0x10, 0x00, 0x00, 0x00, 0x00, 0x00, 0x00, 0x00, 0x00, 0x00, 0x00, 0x00,
  0x00, 0x00, 0x00, 0x00, 0x00, 0x00, 0x00, 0x00, 0x00, 0x00, 0x00, 0x00,
  0x00, 0x00, 0x00, 0x00, 0x00, 0x00, 0x00, 0x00, 0x00, 0x00, 0x00, 0x00,
  0x00, 0x00, 0x00, 0x00, 0x00, 0x00, 0x00, 0x00, 0x00, 0x00, 0x00, 0x00,
  0x00, 0x00, 0x00, 0x00, 0x00, 0x00, 0x00, 0x00, 0x00, 0x00, 0x00, 0x00,
  0x00, 0x00, 0x00, 0x00, 0x00, 0x00, 0x00, 0x00, 0x00, 0x00, 0x00, 0x00,
  0x00, 0x00, 0x00, 0x00, 0x00, 0x00, 0x00, 0x00, 0x00, 0x00, 0x00, 0x00,
  0x00, 0x00, 0x00, 0x00, 0x00, 0x00, 0x00, 0x00, 0x00, 0x00, 0x00, 0x00,
  0x00, 0x00, 0x00, 0x00, 0x00, 0x00, 0x00, 0x00, 0x00, 0x00, 0x00, 0x00,
  0x00, 0x00, 0x00, 0x00, 0x00, 0x00, 0x00, 0x00, 0x00, 0x00, 0x00, 0x00,
  0x00, 0x00, 0x00, 0x00, 0x00, 0x00, 0x00, 0x00, 0x00, 0x00, 0x00, 0x00,
  0x10, 0x00, 0x00, 0x00, 0xf7, 0x46, 0x4d, 0x3b, 0xf4, 0x86, 0x82, 0x3b,
  0x66, 0x3d, 0x22, 0x3b, 0x48, 0xb4, 0x51, 0x3b, 0x68, 0x06, 0x70, 0x3b,
  0x25, 0xfb, 0x25, 0x3b, 0x6e, 0xd7, 0x30, 0x3b, 0x06, 0x4e, 0x1d, 0x3b,
  0x0e, 0x53, 0x45, 0x3b, 0xf4, 0x5b, 0x55, 0x3b, 0xd3, 0xd5, 0x1b, 0x3b,
  0x59, 0x9d, 0x4c, 0x3b, 0x6a, 0x02, 0x50, 0x3b, 0xc7, 0xd9, 0x53, 0x3b,
  0x67, 0x92, 0x44, 0x3b, 0x72, 0x86, 0x1f, 0x3b, 0x1d, 0x00, 0x00, 0x00,
  0x64, 0x69, 0x73, 0x74, 0x69, 0x6c, 0x6c, 0x65, 0x64, 0x5f, 0x6d, 0x6f,
  0x64, 0x65, 0x6c, 0x2f, 0x63, 0x6f, 0x6e, 0x76, 0x32, 0x64, 0x2f, 0x43,
  0x6f, 0x6e, 0x76, 0x32, 0x44, 0x00, 0x00, 0x00, 0x04, 0x00, 0x00, 0x00,
  0x10, 0x00, 0x00, 0x00, 0x03, 0x00, 0x00, 0x00, 0x03, 0x00, 0x00, 0x00,
  0x01, 0x00, 0x00, 0x00, 0x32, 0xf9, 0xff, 0xff, 0x00, 0x00, 0x00, 0x01,
  0x14, 0x00, 0x00, 0x00, 0xe8, 0x00, 0x00, 0x00, 0x09, 0x00, 0x00, 0x00,
  0x00, 0x00, 0x00, 0x02, 0x10, 0x01, 0x00, 0x00, 0x9c, 0xf8, 0xff, 0xff,
  0x08, 0x00, 0x00, 0x00, 0x8c, 0x00, 0x00, 0x00, 0x10, 0x00, 0x00, 0x00,
  0x00, 0x00, 0x00, 0x00, 0x00, 0x00, 0x00, 0x00, 0x00, 0x00, 0x00, 0x00,
  0x00, 0x00, 0x00, 0x00, 0x00, 0x00, 0x00, 0x00, 0x00, 0x00, 0x00, 0x00,
  0x00, 0x00, 0x00, 0x00, 0x00, 0x00, 0x00, 0x00, 0x00, 0x00, 0x00, 0x00,
  0x00, 0x00, 0x00, 0x00, 0x00, 0x00, 0x00, 0x00, 0x00, 0x00, 0x00, 0x00,
  0x00, 0x00, 0x00, 0x00, 0x00, 0x00, 0x00, 0x00, 0x00, 0x00, 0x00, 0x00,
  0x00, 0x00, 0x00, 0x00, 0x00, 0x00, 0x00, 0x00, 0x00, 0x00, 0x00, 0x00,
  0x00, 0x00, 0x00, 0x00, 0x00, 0x00, 0x00, 0x00, 0x00, 0x00, 0x00, 0x00,
  0x00, 0x00, 0x00, 0x00, 0x00, 0x00, 0x00, 0x00, 0x00, 0x00, 0x00, 0x00,
  0x00, 0x00, 0x00, 0x00, 0x00, 0x00, 0x00, 0x00, 0x00, 0x00, 0x00, 0x00,
  0x00, 0x00, 0x00, 0x00, 0x00, 0x00, 0x00, 0x00, 0x00, 0x00, 0x00, 0x00,
  0x00, 0x00, 0x00, 0x00, 0x00, 0x00, 0x00, 0x00, 0x00, 0x00, 0x00, 0x00,
  0x10, 0x00, 0x00, 0x00, 0xc8, 0xb2, 0x4f, 0x37, 0x11, 0x11, 0x84, 0x37,
  0x44, 0x27, 0x24, 0x37, 0x77, 0x2d, 0x54, 0x37, 0x24, 0xdb, 0x72, 0x37,
  0x4f, 0xf0, 0x27, 0x37, 0x63, 0xed, 0x32, 0x37, 0xfe, 0x28, 0x1f, 0x37,
  0xdc, 0xa6, 0x47, 0x37, 0x2c, 0xe0, 0x57, 0x37, 0x5b, 0xac, 0x1d, 0x37,
  0x2a, 0x07, 0x4f, 0x37, 0x7b, 0x76, 0x52, 0x37, 0x71, 0x59, 0x56, 0x37,
  0xef, 0xe3, 0x46, 0x37, 0x1e, 0x68, 0x21, 0x37, 0x2d, 0x00, 0x00, 0x00,
  0x64, 0x69, 0x73, 0x74, 0x69, 0x6c, 0x6c, 0x65, 0x64, 0x5f, 0x6d, 0x6f,
  0x64, 0x65, 0x6c, 0x2f, 0x63, 0x6f, 0x6e, 0x76, 0x32, 0x64, 0x2f, 0x42,
  0x69, 0x61, 0x73, 0x41, 0x64, 0x64, 0x2f, 0x52, 0x65, 0x61, 0x64, 0x56,
  0x61, 0x72, 0x69, 0x61, 0x62, 0x6c, 0x65, 0x4f, 0x70, 0x00, 0x00, 0x00,
  0x01, 0x00, 0x00, 0x00, 0x10, 0x00, 0x00, 0x00, 0x62, 0xfa, 0xff, 0xff,
  0x00, 0x00, 0x00, 0x01, 0x14, 0x00, 0x00, 0x00, 0xe4, 0x00, 0x00, 0x00,
  0x08, 0x00, 0x00, 0x00, 0x00, 0x00, 0x00, 0x09, 0xfc, 0x00, 0x00, 0x00,
  0xcc, 0xf9, 0xff, 0xff, 0x08, 0x00, 0x00, 0x00, 0x88, 0x00, 0x00, 0x00,
  0x10, 0x00, 0x00, 0x00, 0x00, 0x00, 0x00, 0x00, 0x00, 0x00, 0x00, 0x00,
  0x00, 0x00, 0x00, 0x00, 0x00, 0x00, 0x00, 0x00, 0x00, 0x00, 0x00, 0x00,
  0x00, 0x00, 0x00, 0x00, 0x00, 0x00, 0x00, 0x00, 0x00, 0x00, 0x00, 0x00,
  0x00, 0x00, 0x00, 0x00, 0x00, 0x00, 0x00, 0x00, 0x00, 0x00, 0x00, 0x00,
  0x00, 0x00, 0x00, 0x00, 0x00, 0x00, 0x00, 0x00, 0x00, 0x00, 0x00, 0x00,
  0x00, 0x00, 0x00, 0x00, 0x00, 0x00, 0x00, 0x00, 0x00, 0x00, 0x00, 0x00,
  0x00, 0x00, 0x00, 0x00, 0x00, 0x00, 0x00, 0x00, 0x00, 0x00, 0x00, 0x00,
  0x00, 0x00, 0x00, 0x00, 0x00, 0x00, 0x00, 0x00, 0x00, 0x00, 0x00, 0x00,
  0x00, 0x00, 0x00, 0x00, 0x00, 0x00, 0x00, 0x00, 0x00, 0x00, 0x00, 0x00,
  0x00, 0x00, 0x00, 0x00, 0x00, 0x00, 0x00, 0x00, 0x00, 0x00, 0x00, 0x00,
  0x00, 0x00, 0x00, 0x00, 0x00, 0x00, 0x00, 0x00, 0x00, 0x00, 0x00, 0x00,
  0x10, 0x00, 0x00, 0x00, 0x9f, 0x4f, 0xca, 0x3b, 0xab, 0x50, 0x2b, 0x3c,
  0xd2, 0xcd, 0xf3, 0x3b, 0x1d, 0xeb, 0x22, 0x3c, 0x69, 0xfa, 0x42, 0x3c,
  0x2d, 0x23, 0x17, 0x3c, 0x99, 0x2d, 0x13, 0x3c, 0x42, 0x4d, 0x43, 0x3c,
  0x56, 0xd4, 0x4d, 0x3c, 0xc3, 0x37, 0xde, 0x3b, 0x4b, 0xb8, 0x20, 0x3c,
  0xf2, 0xed, 0xb8, 0x3b, 0xed, 0x17, 0xad, 0x3b, 0xc7, 0x47, 0x3a, 0x3c,
  0x7e, 0x2c, 0x34, 0x3c, 0x2a, 0x33, 0xe4, 0x3b, 0x1f, 0x00, 0x00, 0x00,
  0x64, 0x69, 0x73, 0x74, 0x69, 0x6c, 0x6c, 0x65, 0x64, 0x5f, 0x6d, 0x6f,
  0x64, 0x65, 0x6c, 0x2f, 0x63, 0x6f, 0x6e, 0x76, 0x32, 0x64, 0x5f, 0x31,
  0x2f, 0x43, 0x6f, 0x6e, 0x76, 0x32, 0x44, 0x00, 0x04, 0x00, 0x00, 0x00,
  0x10, 0x00, 0x00, 0x00, 0x03, 0x00, 0x00, 0x00, 0x03, 0x00, 0x00, 0x00,
  0x10, 0x00, 0x00, 0x00, 0x8a, 0xfb, 0xff, 0xff, 0x00, 0x00, 0x00, 0x01,
  0x14, 0x00, 0x00, 0x00, 0xe8, 0x00, 0x00, 0x00, 0x07, 0x00, 0x00, 0x00,
  0x00, 0x00, 0x00, 0x02, 0x10, 0x01, 0x00, 0x00, 0xf4, 0xfa, 0xff, 0xff,
  0x08, 0x00, 0x00, 0x00, 0x8c, 0x00, 0x00, 0x00, 0x10, 0x00, 0x00, 0x00,
  0x00, 0x00, 0x00, 0x00, 0x00, 0x00, 0x00, 0x00, 0x00, 0x00, 0x00, 0x00,
  0x00, 0x00, 0x00, 0x00, 0x00, 0x00, 0x00, 0x00, 0x00, 0x00, 0x00, 0x00,
  0x00, 0x00, 0x00, 0x00, 0x00, 0x00, 0x00, 0x00, 0x00, 0x00, 0x00, 0x00,
  0x00, 0x00, 0x00, 0x00, 0x00, 0x00, 0x00, 0x00, 0x00, 0x00, 0x00, 0x00,
  0x00, 0x00, 0x00, 0x00, 0x00, 0x00, 0x00, 0x00, 0x00, 0x00, 0x00, 0x00,
  0x00, 0x00, 0x00, 0x00, 0x00, 0x00, 0x00, 0x00, 0x00, 0x00, 0x00, 0x00,
  0x00, 0x00, 0x00, 0x00, 0x00, 0x00, 0x00, 0x00, 0x00, 0x00, 0x00, 0x00,
  0x00, 0x00, 0x00, 0x00, 0x00, 0x00, 0x00, 0x00, 0x00, 0x00, 0x00, 0x00,
  0x00, 0x00, 0x00, 0x00, 0x00, 0x00, 0x00, 0x00, 0x00, 0x00, 0x00, 0x00,
  0x00, 0x00, 0x00, 0x00, 0x00, 0x00, 0x00, 0x00, 0x00, 0x00, 0x00, 0x00,
  0x00, 0x00, 0x00, 0x00, 0x00, 0x00, 0x00, 0x00, 0x00, 0x00, 0x00, 0x00,
  0x10, 0x00, 0x00, 0x00, 0xaa, 0xff, 0x27, 0x38, 0x7e, 0x42, 0x8e, 0x38,
  0x51, 0x74, 0x4a, 0x38, 0x82, 0x49, 0x87, 0x38, 0xd5, 0xe8, 0xa1, 0x38,
  0x28, 0x02, 0x7b, 0x38, 0xcf, 0x6e, 0x74, 0x38, 0xa1, 0x2d, 0xa2, 0x38,
  0x9d, 0xeb, 0xaa, 0x38, 0x7d, 0x87, 0x38, 0x38, 0x24, 0x76, 0x85, 0x38,
  0xa9, 0x90, 0x19, 0x38, 0x8a, 0xbc, 0x0f, 0x38, 0xd7, 0xaf, 0x9a, 0x38,
  0xb1, 0x9d, 0x95, 0x38, 0x29, 0x7f, 0x3d, 0x38, 0x2f, 0x00, 0x00, 0x00,
  0x64, 0x69, 0x73, 0x74, 0x69, 0x6c, 0x6c, 0x65, 0x64, 0x5f, 0x6d, 0x6f,
  0x64, 0x65, 0x6c, 0x2f, 0x63, 0x6f, 0x6e, 0x76, 0x32, 0x64, 0x5f, 0x31,
  0x2f, 0x42, 0x69, 0x61, 0x73, 0x41, 0x64, 0x64, 0x2f, 0x52, 0x65, 0x61,
  0x64, 0x56, 0x61, 0x72, 0x69, 0x61, 0x62, 0x6c, 0x65, 0x4f, 0x70, 0x00,
  0x01, 0x00, 0x00, 0x00, 0x10, 0x00, 0x00, 0x00, 0xba, 0xfc, 0xff, 0xff,
  0x00, 0x00, 0x00, 0x01, 0x14, 0x00, 0x00, 0x00, 0xe4, 0x00, 0x00, 0x00,
  0x06, 0x00, 0x00, 0x00, 0x00, 0x00, 0x00, 0x09, 0xfc, 0x00, 0x00, 0x00,
  0x24, 0xfc, 0xff, 0xff, 0x08, 0x00, 0x00, 0x00, 0x88, 0x00, 0x00, 0x00,
  0x10, 0x00, 0x00, 0x00, 0x00, 0x00, 0x00, 0x00, 0x00, 0x00, 0x00, 0x00,
  0x00, 0x00, 0x00, 0x00, 0x00, 0x00, 0x00, 0x00, 0x00, 0x00, 0x00, 0x00,
  0x00, 0x00, 0x00, 0x00, 0x00, 0x00, 0x00, 0x00, 0x00, 0x00, 0x00, 0x00,
  0x00, 0x00, 0x00, 0x00, 0x00, 0x00, 0x00, 0x00, 0x00, 0x00, 0x00, 0x00,
  0x00, 0x00, 0x00, 0x00, 0x00, 0x00, 0x00, 0x00, 0x00, 0x00, 0x00, 0x00,
  0x00, 0x00, 0x00, 0x00, 0x00, 0x00, 0x00, 0x00, 0x00, 0x00, 0x00, 0x00,
  0x00, 0x00, 0x00, 0x00, 0x00, 0x00, 0x00, 0x00, 0x00, 0x00, 0x00, 0x00,
  0x00, 0x00, 0x00, 0x00, 0x00, 0x00, 0x00, 0x00, 0x00, 0x00, 0x00, 0x00,
  0x00, 0x00, 0x00, 0x00, 0x00, 0x00, 0x00, 0x00, 0x00, 0x00, 0x00, 0x00,
  0x00, 0x00, 0x00, 0x00, 0x00, 0x00, 0x00, 0x00, 0x00, 0x00, 0x00, 0x00,
  0x00, 0x00, 0x00, 0x00, 0x00, 0x00, 0x00, 0x00, 0x00, 0x00, 0x00, 0x00,
  0x10, 0x00, 0x00, 0x00, 0xb8, 0xa3, 0x9a, 0x3b, 0xa1, 0x21, 0xce, 0x3b,
  0xa7, 0xe1, 0xfb, 0x3b, 0xfc, 0xed, 0x97, 0x3b, 0x18, 0x11, 0xeb, 0x3b,
  0xb1, 0x44, 0x0b, 0x3c, 0x52, 0x14, 0xe1, 0x3b, 0xea, 0xb6, 0xb7, 0x3b,
  0x6c, 0x9f, 0xc8, 0x3b, 0x46, 0x8b, 0x97, 0x3b, 0xe1, 0x85, 0x04, 0x3c,
  0x9d, 0xb8, 0x02, 0x3c, 0x73, 0x36, 0xed, 0x3b, 0xfc, 0x31, 0xf7, 0x3b,
  0xc1, 0x5b, 0xad, 0x3b, 0x2d, 0x5b, 0xe2, 0x3b, 0x1f, 0x00, 0x00, 0x00,
  0x64, 0x69, 0x73, 0x74, 0x69, 0x6c, 0x6c, 0x65, 0x64, 0x5f, 0x6d, 0x6f,
  0x64, 0x65, 0x6c, 0x2f, 0x63, 0x6f, 0x6e, 0x76, 0x32, 0x64, 0x5f, 0x32,
  0x2f, 0x43, 0x6f, 0x6e, 0x76, 0x32, 0x44, 0x00, 0x04, 0x00, 0x00, 0x00,
  0x10, 0x00, 0x00, 0x00, 0x03, 0x00, 0x00, 0x00, 0x03, 0x00, 0x00, 0x00,
  0x10, 0x00, 0x00, 0x00, 0xe2, 0xfd, 0xff, 0xff, 0x00, 0x00, 0x00, 0x01,
  0x14, 0x00, 0x00, 0x00, 0xe8, 0x00, 0x00, 0x00, 0x05, 0x00, 0x00, 0x00,
  0x00, 0x00, 0x00, 0x02, 0x10, 0x01, 0x00, 0x00, 0x4c, 0xfd, 0xff, 0xff,
  0x08, 0x00, 0x00, 0x00, 0x8c, 0x00, 0x00, 0x00, 0x10, 0x00, 0x00, 0x00,
  0x00, 0x00, 0x00, 0x00, 0x00, 0x00, 0x00, 0x00, 0x00, 0x00, 0x00, 0x00,
  0x00, 0x00, 0x00, 0x00, 0x00, 0x00, 0x00, 0x00, 0x00, 0x00, 0x00, 0x00,
  0x00, 0x00, 0x00, 0x00, 0x00, 0x00, 0x00, 0x00, 0x00, 0x00, 0x00, 0x00,
  0x00, 0x00, 0x00, 0x00, 0x00, 0x00, 0x00, 0x00, 0x00, 0x00, 0x00, 0x00,
  0x00, 0x00, 0x00, 0x00, 0x00, 0x00, 0x00, 0x00, 0x00, 0x00, 0x00, 0x00,
  0x00, 0x00, 0x00, 0x00, 0x00, 0x00, 0x00, 0x00, 0x00, 0x00, 0x00, 0x00,
  0x00, 0x00, 0x00, 0x00, 0x00, 0x00, 0x00, 0x00, 0x00, 0x00, 0x00, 0x00,
  0x00, 0x00, 0x00, 0x00, 0x00, 0x00, 0x00, 0x00, 0x00, 0x00, 0x00, 0x00,
  0x00, 0x00, 0x00, 0x00, 0x00, 0x00, 0x00, 0x00, 0x00, 0x00, 0x00, 0x00,
  0x00, 0x00, 0x00, 0x00, 0x00, 0x00, 0x00, 0x00, 0x00, 0x00, 0x00, 0x00,
  0x00, 0x00, 0x00, 0x00, 0x00, 0x00, 0x00, 0x00, 0x00, 0x00, 0x00, 0x00,
  0x10, 0x00, 0x00, 0x00, 0xdd, 0xb4, 0x82, 0x38, 0xa8, 0x3a, 0xae, 0x38,
  0x0d, 0xe6, 0xd4, 0x38, 0x7f, 0x6a, 0x80, 0x38, 0xb1, 0xaf, 0xc6, 0x38,
  0xb2, 0x6d, 0xeb, 0x38, 0x9f, 0x3e, 0xbe, 0x38, 0x1a, 0x48, 0x9b, 0x38,
  0xb3, 0x92, 0xa9, 0x38, 0x10, 0x17, 0x80, 0x38, 0x93, 0x06, 0xe0, 0x38,
  0xd2, 0xfa, 0xdc, 0x38, 0x07, 0x80, 0xc8, 0x38, 0x0d, 0xf0, 0xd0, 0x38,
  0x41, 0x87, 0x92, 0x38, 0xe4, 0x52, 0xbf, 0x38, 0x2f, 0x00, 0x00, 0x00,
  0x64, 0x69, 0x73, 0x74, 0x69, 0x6c, 0x6c, 0x65, 0x64, 0x5f, 0x6d, 0x6f,
  0x64, 0x65, 0x6c, 0x2f, 0x63, 0x6f, 0x6e, 0x76, 0x32, 0x64, 0x5f, 0x32,
  0x2f, 0x42, 0x69, 0x61, 0x73, 0x41, 0x64, 0x64, 0x2f, 0x52, 0x65, 0x61,
  0x64, 0x56, 0x61, 0x72, 0x69, 0x61, 0x62, 0x6c, 0x65, 0x4f, 0x70, 0x00,
  0x01, 0x00, 0x00, 0x00, 0x10, 0x00, 0x00, 0x00, 0x12, 0xff, 0xff, 0xff,
  0x00, 0x00, 0x00, 0x01, 0x14, 0x00, 0x00, 0x00, 0x34, 0x00, 0x00, 0x00,
  0x04, 0x00, 0x00, 0x00, 0x00, 0x00, 0x00, 0x09, 0x4c, 0x00, 0x00, 0x00,
  0x7c, 0xfe, 0xff, 0xff, 0x08, 0x00, 0x00, 0x00, 0x14, 0x00, 0x00, 0x00,
  0x01, 0x00, 0x00, 0x00, 0x00, 0x00, 0x00, 0x00, 0x00, 0x00, 0x00, 0x00,
  0x00, 0x00, 0x00, 0x00, 0x01, 0x00, 0x00, 0x00, 0x7d, 0xec, 0xd7, 0x3b,
  0x1e, 0x00, 0x00, 0x00, 0x64, 0x69, 0x73, 0x74, 0x69, 0x6c, 0x6c, 0x65,
  0x64, 0x5f, 0x6d, 0x6f, 0x64, 0x65, 0x6c, 0x2f, 0x64, 0x65, 0x6e, 0x73,
  0x65, 0x5f, 0x32, 0x2f, 0x4d, 0x61, 0x74, 0x4d, 0x75, 0x6c, 0x00, 0x00,
  0x02, 0x00, 0x00, 0x00, 0x02, 0x00, 0x00, 0x00, 0x00, 0x04, 0x00, 0x00,
  0x82, 0xff, 0xff, 0xff, 0x00, 0x00, 0x00, 0x01, 0x14, 0x00, 0x00, 0x00,
  0x34, 0x00, 0x00, 0x00, 0x03, 0x00, 0x00, 0x00, 0x00, 0x00, 0x00, 0x02,
  0x5c, 0x00, 0x00, 0x00, 0xec, 0xfe, 0xff, 0xff, 0x08, 0x00, 0x00, 0x00,
  0x14, 0x00, 0x00, 0x00, 0x01, 0x00, 0x00, 0x00, 0x00, 0x00, 0x00, 0x00,
  0x00, 0x00, 0x00, 0x00, 0x00, 0x00, 0x00, 0x00, 0x01, 0x00, 0x00, 0x00,
  0xc5, 0xc9, 0xf3, 0x38, 0x2e, 0x00, 0x00, 0x00, 0x64, 0x69, 0x73, 0x74,
  0x69, 0x6c, 0x6c, 0x65, 0x64, 0x5f, 0x6d, 0x6f, 0x64, 0x65, 0x6c, 0x2f,
  0x64, 0x65, 0x6e, 0x73, 0x65, 0x5f, 0x32, 0x2f, 0x42, 0x69, 0x61, 0x73,
  0x41, 0x64, 0x64, 0x2f, 0x52, 0x65, 0x61, 0x64, 0x56, 0x61, 0x72, 0x69,
  0x61, 0x62, 0x6c, 0x65, 0x4f, 0x70, 0x00, 0x00, 0x01, 0x00, 0x00, 0x00,
  0x02, 0x00, 0x00, 0x00, 0x00, 0x00, 0x16, 0x00, 0x1c, 0x00, 0x18, 0x00,
  0x17, 0x00, 0x10, 0x00, 0x0c, 0x00, 0x08, 0x00, 0x00, 0x00, 0x00, 0x00,
  0x00, 0x00, 0x07, 0x00, 0x16, 0x00, 0x00, 0x00, 0x00, 0x00, 0x00, 0x01,
  0x18, 0x00, 0x00, 0x00, 0x18, 0x00, 0x00, 0x00, 0x02, 0x00, 0x00, 0x00,
  0x00, 0x00, 0x00, 0x02, 0x30, 0x00, 0x00, 0x00, 0x04, 0x00, 0x04, 0x00,
  0x04, 0x00, 0x00, 0x00, 0x1d, 0x00, 0x00, 0x00, 0x64, 0x69, 0x73, 0x74,
  0x69, 0x6c, 0x6c, 0x65, 0x64, 0x5f, 0x6d, 0x6f, 0x64, 0x65, 0x6c, 0x2f,
  0x66, 0x6c, 0x61, 0x74, 0x74, 0x65, 0x6e, 0x2f, 0x43, 0x6f, 0x6e, 0x73,
  0x74, 0x00, 0x00, 0x00, 0x01, 0x00, 0x00, 0x00, 0x02, 0x00, 0x00, 0x00,
  0x00, 0x00, 0x16, 0x00, 0x20, 0x00, 0x1c, 0x00, 0x1b, 0x00, 0x14, 0x00,
  0x10, 0x00, 0x0c, 0x00, 0x00, 0x00, 0x00, 0x00, 0x08, 0x00, 0x07, 0x00,
  0x16, 0x00, 0x00, 0x00, 0x00, 0x00, 0x00, 0x01, 0x18, 0x00, 0x00, 0x00,
  0x34, 0x00, 0x00, 0x00, 0x54, 0x00, 0x00, 0x00, 0x01, 0x00, 0x00, 0x00,
  0x00, 0x00, 0x00, 0x09, 0x6c, 0x00, 0x00, 0x00, 0x04, 0x00, 0x00, 0x00,
  0xff, 0xff, 0xff, 0xff, 0x20, 0x00, 0x00, 0x00, 0x20, 0x00, 0x00, 0x00,
  0x01, 0x00, 0x00, 0x00, 0x0c, 0x00, 0x0c, 0x00, 0x00, 0x00, 0x00, 0x00,
  0x08, 0x00, 0x04, 0x00, 0x0c, 0x00, 0x00, 0x00, 0x08, 0x00, 0x00, 0x00,
  0x14, 0x00, 0x00, 0x00, 0x01, 0x00, 0x00, 0x00, 0x7f, 0x00, 0x00, 0x00,
  0x00, 0x00, 0x00, 0x00, 0x00, 0x00, 0x00, 0x00, 0x01, 0x00, 0x00, 0x00,
  0x7c, 0x82, 0x81, 0x3b, 0x1e, 0x00, 0x00, 0x00, 0x73, 0x65, 0x72, 0x76,
  0x69, 0x6e, 0x67, 0x5f, 0x64, 0x65, 0x66, 0x61, 0x75, 0x6c, 0x74, 0x5f,
  0x63, 0x6f, 0x6e, 0x76, 0x32, 0x64, 0x5f, 0x69, 0x6e, 0x70, 0x75, 0x74,
  0x3a, 0x30, 0x00, 0x00, 0x04, 0x00, 0x00, 0x00, 0x01, 0x00, 0x00, 0x00,
  0x20, 0x00, 0x00, 0x00, 0x20, 0x00, 0x00, 0x00, 0x01, 0x00, 0x00, 0x00,
  0x05, 0x00, 0x00, 0x00, 0x68, 0x00, 0x00, 0x00, 0x48, 0x00, 0x00, 0x00,
  0x38, 0x00, 0x00, 0x00, 0x18, 0x00, 0x00, 0x00, 0x04, 0x00, 0x00, 0x00,
  0xb8, 0xff, 0xff, 0xff, 0x19, 0x00, 0x00, 0x00, 0x02, 0x00, 0x00, 0x00,
  0x00, 0x00, 0x00, 0x19, 0xc8, 0xff, 0xff, 0xff, 0x09, 0x00, 0x00, 0x00,
  0x04, 0x00, 0x00, 0x00, 0x00, 0x00, 0x00, 0x09, 0x0c, 0x00, 0x0c, 0x00,
  0x0b, 0x00, 0x00, 0x00, 0x00, 0x00, 0x04, 0x00, 0x0c, 0x00, 0x00, 0x00,
  0x16, 0x00, 0x00, 0x00, 0x00, 0x00, 0x00, 0x16, 0xf0, 0xff, 0xff, 0xff,
  0x11, 0x00, 0x00, 0x00, 0x02, 0x00, 0x00, 0x00, 0x00, 0x00, 0x00, 0x11,
  0x0c, 0x00, 0x10, 0x00, 0x0f, 0x00, 0x00, 0x00, 0x08, 0x00, 0x04, 0x00,
  0x0c, 0x00, 0x00, 0x00, 0x03, 0x00, 0x00, 0x00, 0x03, 0x00, 0x00, 0x00,
  0x00, 0x00, 0x00, 0x03};
unsigned int model_tflite_len = 12232;
